0001
0001
0001
0001
0001
0001
0001
0001
0001
0001
0001
0001
0001
0001
0001
0001
0001
0001
0001
0001
0001
0001
0001
0001
0001
0001
0001
0001
0001
0001
0001
0001
0001
0001
0001
0001
0001
0001
0001
0001
0001
0001
0001
0001
0001
0001
0001
0001
0001
0001
0001
0001
0001
0001
0001
0001
0001
0001
0001
0001
0001
0001
0001
0001
0001
0001
0001
0001
0001
0001
0001
0001
0001
0001
0001
0001
0001
0001
0001
0001
0001
0001
0001
0001
0001
0001
0001
0001
0001
0001
0001
0001
0001
0001
0001
0001
0065
0003
007d
0007
007d
0011
0075
0003
002d
0001
000d
006d
0051
0049
006d
0079
0073
0015
0017
000f
0059
0013
0025
0009
0001
0071
0045
000f
0077
0055
005b
0025
0009
0063
001d
0069
005f
0009
0063
000f
000b
006d
001b
0011
0035
0073
0009
003f
007b
0063
0053
006f
006f
0067
000f
0053
0061
006b
0067
0005
0077
0015
0013
0079
0079
006d
002f
0015
0069
002f
0055
0003
003b
0077
0025
0023
0037
0019
0003
0007
0063
0009
0031
004b
0009
0003
006d
0029
006f
0009
007b
0013
0059
0009
005f
001f
001d
0061
0027
006b
0067
0021
007b
005b
0057
0001
005b
005f
0013
007f
0023
000b
001b
0057
0017
0079
0077
0077
0017
0053
0077
0053
002f
000b
0013
0017
0007
0011
0027
0061
0001
002d
0053
007b
0063
0011
0067
005d
0015
002f
002f
0007
0007
0053
006b
0019
002d
003d
000b
001f
0065
000d
002f
0071
006d
007f
006f
0073
0019
0073
005f
006f
006b
002b
0025
0033
0013
0051
0067
002b
0065
007d
0071
002b
0043
007b
002d
0011
0075
0061
0005
0079
0075
0067
0025
007f
0079
0055
000b
007f
0061
0025
0027
006d
0001
005b
0011
0027
0071
007d
0059
006f
004b
0023
0075
0005
005b
0077
0065
0013
0079
0065
0005
007f
002d
000d
0017
0071
0061
0013
0051
007f
000b
007b
000d
0075
006d
0015
0055
005b
0013
0009
0057
0063
006d
006f
001f
0067
006f
0067
0071
001b
0029
0063
0077
0059
0015
006b
006f
000f
006f
001d
0079
0067
006f
006f
002b
0059
0011
0029
0069
0003
0027
002f
0065
005f
0003
0031
0025
002b
001b
0031
002d
0033
002f
0001
000d
0013
0053
0023
005f
0017
004b
0025
0037
007f
0067
0039
0021
0037
001d
0009
0061
003b
0015
001d
0021
001f
0067
005f
001f
0021
006f
0023
0053
0065
0073
0065
0067
0075
0069
0025
0025
0017
0057
0065
000f
0059
000f
005f
006f
0029
0055
0073
002b
002b
0057
000d
005d
005b
0071
0003
005f
0061
007d
006d
000b
004d
0071
0057
0011
0023
000d
0043
0017
0079
004b
0015
0075
007b
006f
0049
0007
006d
0025
0003
001b
0065
0009
005d
000b
0021
000b
0031
0049
005d
0021
006f
0023
0031
000f
005b
0035
005d
004f
005d
005b
005d
0059
0009
0029
000b
006f
006b
003f
001b
0017
001f
006b
0000
0000
0000
0000
0000
0000
0000
0000
0000
0000
0000
0000
0000
0000
0000
0000
0000
0000
0000
0000
0000
0000
0000
0000
0000
0000
0000
0000
0000
0000
0000
0000
0000
0000
0000
0000
0000
0000
0000
0000
0000
0000
0000
0000
0000
0000
0000
0000
0000
0000
0000
0000
0000
0000
0000
0000
0000
0000
0000
0000
0000
0000
0000
0000
0000
0000
0000
0000
0000
0000
0000
0000
0000
0000
0000
0000
0000
0000
0000
0000
0000
0000
0000
0000
0000
0000
0000
0000
0000
0000
0000
0000
0000
0000
0000
0000
0000
0000
0000
0000
0000
0000
0000
0000
0000
0000
0000
0000
0000
0000
0000
0000
0000
0000
0000
0000
0000
0000
0000
0000
0000
0000
0000
0000
0000
0000
0000
0000
0000
0000
0000
0000
0000
0000
0000
0000
0000
0000
0000
0000
0000
0000
0000
0000
0000
0000
0000
0000
0000
0000
0000
0000
0000
0000
0000
0000
0000
0000
0000
0000
0000
0000
0000
0000
0000
0000
0000
0000
0000
0000
0000
0000
0000
0000
0000
0000
0000
0000
0000
0000
0000
0000
0000
0000
0000
0000
0000
0000
0000
0000
0000
0000
0000
0000
0000
0000
0000
0000
0000
0000
0000
0000
0000
0000
0000
0000
0000
0000
0000
0000
0000
0000
0000
0000
0000
0000
0000
0000
0000
0000
0000
0000
0000
0000
0000
0000
0000
0000
0000
0000
0000
0000
0000
0000
0000
0000
0000
0000
0000
0000
0000
0000
0000
0000
0000
0000
0000
0000
0000
0000
0000
0000
0000
0000
0000
0000
0000
0000
0000
0000
0000
0000
0000
0000
0000
0000
0000
0000
0000
0000
0000
0000
0000
0000
0000
0000
0000
0000
0000
0000
0000
0000
0000
0000
0000
0000
0000
0000
0000
0000
0000
0000
0000
0000
0000
0000
0000
0000
0000
0000
0000
0000
0000
0000
0000
0000
0000
0000
0000
0000
0000
0000
0000
0000
0000
0000
0000
0000
0000
0000
0000
0000
0000
0000
0000
0000
0000
0000
0000
0000
0000
0000
0000
0000
0000
0000
0000
0000
0000
0000
0000
0000
0000
0000
0000
0000
0000
0000
0000
0000
0000
0000
0000
0000
0000
0000
0000
0000
0000
0000
0000
0000
0000
0000
0000
0000
0000
0000
0000
0000
0000
0000
0000
0000
0000
0000
0000
0000
0000
0000
0000
0000
0000
0000
0000
0000
0000
0000
0000
0000
0000
0000
0000
0000
0000
0000
0000
0000
0000
0000
0000
0000
0000
0000
0000
0000
0000
0000
0000
0000
0000
0000
0000
0000
0000
0000
0000
0000
0000
0000
0000
0000
0000
0000
0000
0000
0000
0000
0000
0000
0000
0000
0000
0000
0000
0000
0000
0000
0000
0000
0000
0000
0000
0000
0000
0000
0000
0000
0000
0000
0000
0000
0000
0000
0000
0000
0000
0000
0000
0000
0000
0000
0000
0000
0000
0000
0000
0000
0000
0000
0000
0000
0000
0000
0000
0000
0000
0000
0000
0000
0000
0000
0000
0000
0000
0000
0000
0000
0000
0000
0000
0000
0000
0000
0000
0000
0000
0000
0000
0000
0000
0000
0000
0000
0000
0000
0000
0000
0000
0000
0000
0000
0000
0000
0000
0000
0000
0000
0000
0000
0000
0000
0000
0000
0000
0000
0000
0000
0000
0000
0000
0000
0000
0000
0000
0000
0000
0000
0000
