f062
1463
2464
1866
1067
e06c
286f
1474
f077
1078
1c7f
188a
e88e
1094
1098
1499
dc9b
10a3
e8b0
2cb3
dcb5
10b7
18b8
18b9
10ba
10bb
f0bc
e8bd
e8c1
f0c2
10c5
10c7
1ccf
14d0
10d2
f0d4
10d6
14d9
e8dc
f0dd
f0df
14e8
24e9
eced
f0f6
d503
d505
ed0f
1110
1d12
e91a
ed1d
ed26
1527
1928
e52f
1937
1138
1143
e94b
e14e
1154
215a
f15c
1863
ec65
1469
206b
ec6d
e86f
2871
1c73
107f
1085
f086
1c88
188b
ec8c
1496
14a2
eca5
e8a7
d0b0
d8b5
1cb7
1cb8
10b9
1cbc
ccbd
f0c0
14c9
e8ca
10cb
eccd
eccf
ecd5
ecd7
14d9
20da
e4db
e0ec
10ee
20f3
18f5
14fc
e901
e904
e505
dd09
f10b
110d
1110
1912
ed13
2114
ed16
2117
f11a
e11d
ed23
1527
1928
112c
f132
d933
1135
2937
ed41
f148
d149
f14b
e94e
2550
1154
1157
ed5a
115c
e95d
1d5e
f062
b863
e064
c865
1c67
1068
e06c
e86d
186e
ec71
d872
2473
f074
1077
e879
1c81
e888
108c
e092
1496
f09a
109b
149c
eca1
10a2
e4a7
18ab
ecaf
e8b5
20b7
10bb
dcbc
14be
18c1
ecc3
14c7
10ca
f0cd
14d5
ecd6
e8d7
e8d8
14d9
10db
10dc
1ce1
10e3
e0e5
20e6
e0ea
e8eb
d0ec
10ed
10f8
18f9
18fa
dcfc
2103
1904
1508
ed0a
110d
1510
1113
1514
d515
f11a
1d20
e521
d522
1923
ed26
f128
f12a
f12d
f130
2534
e93c
f140
1144
e549
1550
f151
d952
e956
ed59
215c
215d
1d5e
115f
e865
1066
106a
ec6c
ec71
e872
1073
1077
ec79
147b
147d
1083
e885
f08d
e48f
e892
1496
2098
1099
dc9b
149c
109d
109e
10a0
d8a1
14a3
eca6
f0a7
f0b1
14b3
e4b5
14b7
18b8
ecbd
14be
e0c3
e8c5
f0c7
10d1
28d6
18d9
10dc
10dd
10e1
1ce3
f0e4
10e5
ece7
10e8
1cec
dcf3
14f5
10f9
f0fb
14fc
e8fd
f0ff
f100
f101
ed04
e505
2106
1908
110a
ed0b
c50c
f10e
190f
1d10
ed13
d915
f11a
e91d
1120
1121
f123
e927
cd28
ed2f
e130
1d31
2134
ed3b
e53c
1143
ed47
e54a
d94d
194f
e951
f152
1155
195a
d95d
f061
dc64
c465
246c
ec6d
2470
b071
1875
1879
1c7c
107d
d47f
1080
f081
1486
108a
e08d
e092
1c93
e494
ec96
1897
149b
149e
ec9f
eca0
e4a1
18a2
14a4
f0a7
ecae
24b0
e8b1
ecb6
14b7
14b8
f0ba
ccbb
18bd
10c1
d8c2
28c3
14ca
f0cb
e4cc
ecd1
14d2
e8d3
d0d4
d4d5
e8d8
10d9
e8da
e4db
20dc
20e1
f0e2
e8e4
10e6
d4e7
14e8
18ec
10ed
e4ee
1cf0
14f1
ecf9
24fa
ecfd
ed00
1501
2102
2503
bd04
f106
ed08
e90b
e90d
1510
e912
ed13
2514
dd15
1516
111b
ed20
2521
2122
1126
f128
2129
112a
ed2b
e92e
112f
1932
f134
ed3b
1d40
1541
f142
c94a
e54d
214e
ed51
1152
1956
e959
d15c
215d
f061
e062
1864
e865
1c66
1469
ec6b
f06d
e46e
1071
ec72
e873
d874
2075
1478
147c
147d
d47e
1484
ec85
208c
e88d
e490
2096
1c97
1899
109b
f09d
1c9e
e8a0
1ca4
f0a7
14ad
e4ae
dcaf
f0b0
e8b1
f0b3
14b7
e8bc
14be
f0c2
f0cb
f0cd
14cf
24d2
e8d4
d0d7
14d8
ecdb
10de
18e1
10e3
e4e4
28e6
1ce8
ece9
ecea
20ef
1cf0
10f1
18f2
e4f3
c4f6
1cfa
14fc
2900
1501
e504
d106
f109
e10a
110c
f10d
1511
ed13
f114
ed15
1916
ed18
191b
ed1c
111e
e920
1522
1526
1927
e528
292c
f12d
e131
1132
1533
ed34
1937
ed43
e545
1147
e94a
1d4b
f14e
194f
f150
1555
1956
dd59
d95a
d95c
f061
f065
2066
1867
e068
1069
f06b
f06d
f06e
ec70
1473
c874
e876
d878
bc7e
3088
f08b
108e
ec95
1097
2498
149b
e49e
d4a2
24a3
14a7
18a9
ecae
d8af
e8b0
e0b1
14b4
18b6
e8ba
1cbb
ecbc
e0bd
f0bf
e0cb
1ccc
ecd0
1cd5
ecd9
18dc
b8df
e8e1
e8e2
10e5
f0e6
20e7
d0e9
e0ed
10f0
c8f3
18f4
d8f6
20f9
ccfc
10ff
1100
d901
1103
e105
d106
2908
c50a
290b
2d0f
1510
2511
e114
e919
211b
1d1c
111d
1d1e
151f
1521
ed22
2927
e929
112a
152d
152e
f12f
f130
e931
2132
f134
ed36
2937
ed3c
154b
e94e
e152
dd55
d559
115a
f15c
155e
1061
dc63
e864
f065
1c66
1868
c470
1072
1873
e875
c878
147b
dc7d
ec7e
e880
ec82
2084
2c85
f08b
108d
188e
e093
e895
f098
e09a
109f
f0a0
18a1
dca2
24a3
f0a8
e0ad
dcae
14b0
10b2
10b4
10b5
18b7
14b8
e8b9
e4ba
dcbd
e4c2
10c6
10c8
dccb
e0ce
c8d1
18d6
18d7
10d8
f0da
e0df
f0e1
ece5
dce6
14e7
e0e9
f0ea
e8eb
e8ec
eced
10ee
28f0
d8f3
f0fa
e8fe
2504
1507
1509
190b
ed0c
150d
ed11
1913
e915
d116
1918
e51a
251b
111c
211d
151e
ed20
ed22
cd29
252d
152e
1132
1133
e940
1941
1542
1543
1546
dd47
194b
114d
ed4f
d953
d555
e556
f15c
ed5d
e95f
1060
f063
e864
1866
f06c
ec70
f071
2472
ec74
1076
f078
e479
147c
f07e
d880
3081
1484
1885
1086
e888
ec8a
e48b
d493
2094
1096
e497
ec98
e89a
1c9f
e0a2
14a5
f0a6
e8a8
e8a9
10ab
e4b3
ecb4
ecb5
14b8
10b9
ecbe
ecc1
14c2
ecc3
18c4
14c6
d8c9
e8cb
1ccd
20ce
ecd1
e8d2
d0d3
ecd6
1cd8
14d9
d4da
dcdb
e4dc
14dd
1ce2
e8e6
10e7
ece9
f0eb
1cee
10ef
14f0
20f1
f0f3
e8f4
14f5
ecf7
d8fa
bcfb
14fe
1101
ed02
e904
e905
d50a
dd0b
e10d
190e
f10f
2110
1112
1118
1119
211c
1d23
ed29
152c
1d2d
112e
1534
1135
1136
f137
f13f
1540
d544
1146
1d49
354a
1d4d
f14e
194f
1152
ed53
2d54
e155
2557
1d58
ed5a
1d5e
f15f
1065
2466
2069
186e
e072
f073
1075
e077
e479
147e
1c81
1082
ec83
1084
f087
1088
e48f
f092
f094
2895
1896
e097
1098
189b
109f
10a1
10a3
d0a9
18ad
ccb1
e8b2
f0b6
f0b7
10b8
18bd
18c2
e8c3
1cc5
f0c9
14ca
dccb
14cd
ecd0
14d5
1cd9
d4dc
d8de
10e0
dce3
1ce4
f0e6
f0e8
f0e9
f0eb
14ed
10f0
e4f2
f0f5
18f6
ecf8
f0f9
e0fa
18fd
10ff
dd00
1501
1d03
f104
2105
d90a
e90b
110c
f10d
110f
2111
d113
1114
1915
1916
b519
111a
e11b
111c
e51d
111e
1d23
1524
1126
e927
dd29
112b
192d
1d2f
1d30
e532
1d34
dd36
d53b
193d
f13f
1d40
2941
ed44
1147
1d4d
1951
1157
f15b
155c
155d
195e
f062
1463
1464
1865
e867
186d
dc70
1071
2074
1078
147e
187f
1080
1c84
e485
e487
188a
d48b
1c8c
e88d
148e
f08f
1890
ec93
1097
1c98
2499
189a
189b
109e
f0a1
18a2
10a3
f0a4
14a6
eca8
14aa
10ab
18ad
f0ae
f0af
e0b1
e8b2
2cb3
e8b6
e8b7
1cbb
e4bc
10bf
e4c0
14c9
18d0
e8d1
20d3
e8d4
24d5
ecd8
f0d9
24db
ccdd
e4df
10e1
ece2
e4e3
e8e6
e0e7
eceb
ecec
ecef
dcf2
14f6
10fc
14fd
10fe
10ff
c900
1906
2508
e50a
110b
f10c
c90e
ed10
f112
1514
ed16
e118
191a
d51b
e11d
ed1e
1523
1524
1125
f129
152a
ed2c
e52e
312f
1130
1d31
e132
e537
d13b
1941
1d49
f14a
e54b
dd4d
ed4e
154f
e550
1151
1952
1d56
f157
f158
1159
e95b
e061
2866
f067
d468
ec69
c86c
1c6d
cc6f
c070
1471
d073
1076
d077
1878
d07c
1c7d
ec83
1084
f086
c087
1c8c
cc8d
148e
ec92
e493
1495
2096
e09a
109c
1ca0
d4a1
eca3
f0a5
10a7
d8a8
f0a9
14aa
10ad
f0b0
ecb2
ecb6
14b8
f0b9
ecbb
e0bd
10be
18bf
e0c1
f0c2
e8c6
ecc8
20c9
e0ca
e8cc
d4d0
14d1
f0d2
ccd4
1cd6
28d8
e8da
20dc
f0de
e8e3
14e4
24e5
ece7
eceb
18f1
dcf5
14f9
20fa
ecfc
18fe
1901
f104
e505
150a
110d
e50e
e510
2111
1913
1515
f118
d51b
c91e
2d1f
2d20
ed22
ed26
1129
192b
112d
152f
2530
d932
1134
1135
1d36
ed40
1d41
e548
114a
d94b
e14d
c54e
e950
1151
1552
1154
2155
1d56
f157
e558
cd59
dd5b
f15c
d461
1064
146a
e86c
ec6e
d06f
f070
1072
f075
e477
147b
247d
f07e
187f
dc80
1481
1c82
ec86
d887
1089
188a
ec8c
cc8d
ec8e
188f
1c91
e492
1095
e09a
ec9b
d89f
28a0
d0a1
f0a3
14a6
d8a7
20a8
f0ab
18ad
e4bc
18be
d8c1
1cc2
14c4
d4c6
f0c7
e8ca
18cb
eccd
14ce
dcd1
10d2
c4d3
e8d4
14d8
e8dd
20e6
10e9
e8eb
10f0
10f5
10f7
14fa
18fb
e8fd
14fe
e4ff
1903
ed05
1907
1509
e90c
1d0d
f10e
150f
e910
1111
1113
d91a
f11b
f11c
f11e
2120
1921
d522
1124
cd28
3129
1930
e933
f135
e137
1938
f139
2141
1d43
ed47
e548
ed4b
e14d
ed4e
e953
f155
d556
d957
dd59
e55b
f15c
155e
e460
c861
d462
f063
1466
1467
3468
f06b
106c
f06f
ec70
f074
d877
e878
147b
247c
1c7d
147f
e480
1881
1882
e083
1484
f085
cc87
188a
dc8d
f08e
2891
1894
cc95
f097
ec9b
e49d
e49f
1ca6
18a8
10a9
1caa
1cad
f0b0
e4b1
d4b2
d8b4
14b7
e4b9
e8bd
14be
14bf
1cc0
c4c1
ecc6
e0c9
f0ca
1ccb
2ccd
20ce
24d0
14d2
f0d4
10d9
10dc
14df
14e2
e8e4
dce5
e4eb
eced
f0ee
f0f1
d8f6
e4f9
10fa
ecfd
20fe
ecff
e501
e106
d108
e50c
f10f
1511
1512
ed15
e516
dd19
ed1c
dd1f
ed22
e523
d525
1529
e52b
e92d
152e
f131
ed34
e935
2138
153a
113c
2540
f145
1148
e54a
f14d
294f
e952
ed54
1955
f157
dd58
f15a
cd5b
e15c
1d5d
195e
255f
dc60
d461
dc63
2066
206a
106d
1870
1472
1073
e875
e477
107c
107d
107f
dc80
1c82
1884
dc87
208a
e48e
b88f
d091
cc92
e093
2094
1896
f097
1c9a
f09b
189c
cc9f
18a1
f0a8
1cab
10ac
18ad
18ae
e8b2
18b8
e4b9
24ba
18bc
10bd
20c0
ecc1
10c2
10c8
e0c9
10cb
10ce
28cf
10d2
dcd5
18da
f0db
ecde
14e9
e4ea
dced
14f0
e8f5
e8f6
14f8
e8fb
ecfd
1100
1902
1105
dd06
1107
e108
110a
e90b
f10d
190e
1111
f113
e914
1d15
1517
e51a
e51c
ed1f
e923
e925
f126
1d30
2933
f134
e535
1539
113a
ed3d
d942
e143
1547
1d48
e549
254b
dd4f
ed50
dd54
bd57
ed58
d95b
f15d
255f
ec60
e461
ec65
dc68
e06a
106c
186d
206f
f075
f076
d477
247b
f07d
1c84
e487
ec88
f08d
ec8e
e090
dc91
1893
1494
f095
3096
189a
f09b
e89c
289d
189e
d89f
eca2
eca4
e0a8
14a9
18aa
18ad
14ae
ecaf
10b1
e8b4
e4b5
18b7
ecb9
14c0
d4c1
14c2
e8c3
10c5
10c8
e8cd
10ce
18cf
14d1
e0d5
ecd8
10da
dcdc
14dd
e8de
18e3
18e7
30eb
d0ed
24ee
10ef
18f0
ecf1
10f4
e8f5
14f7
d8f9
ecfb
f0ff
1d01
d106
1107
150c
c50d
e50e
210f
1112
f113
1517
dd18
e51a
191b
191d
111e
1521
e925
ed26
f12f
1533
ed34
e935
1138
f13b
193f
dd40
ed41
1544
1145
e149
194b
ed4e
1151
f154
f157
d15b
1d5c
1d5f
e460
1063
c865
e468
c86a
f077
1078
e87a
147b
e87c
f07d
1c7f
1480
1082
2084
dc87
f08b
ec8e
1c8f
d091
d492
2093
2496
e898
ec9b
ec9c
dc9f
c4a0
10a5
10aa
b8ab
20ad
f0ae
20b0
f0b2
dcb4
ecb5
10b7
24b8
f0b9
dcba
10bb
c4bc
e0bd
18c0
14c5
18c6
10c8
28c9
d0cd
20d3
ecd5
18db
e8dc
f0de
f0df
14e3
e0ea
20eb
e4ed
18ee
14ef
18f0
14f2
18f5
10f9
ccfa
d8fc
1504
1105
e506
1107
ed09
1510
1115
1516
d518
1d1b
ed1c
191f
1120
f123
e926
1928
dd2b
ed2d
1533
e135
1138
dd39
193b
193c
ed3e
153f
dd40
e541
e943
1145
ed49
1d4b
214d
e951
e55a
d95b
ed5d
115e
d061
ec65
c067
e468
dc6a
206b
f06c
1c6d
e06f
e472
1473
e874
307b
e47e
1c81
1483
2884
1c86
ec87
2088
ec8c
e88e
148f
1490
f094
e895
1496
1c97
f098
149b
f09c
d09d
f09f
f0a0
dca1
10a4
10a5
e8a6
10a9
10aa
c8ab
1cad
e8b2
10b3
ecb4
10b9
10bd
d8bf
14c5
1cc6
18c8
10c9
20cc
c4cd
18cf
dcd0
14d6
10d8
d8db
d4e0
20e3
10e4
24e5
18e8
28eb
e0ed
10ef
14f0
e8f1
18f3
f0f6
28f9
14fc
1cfd
18fe
ed01
ed04
e905
d506
1508
f109
ed0a
f10b
dd0c
110d
e90f
1510
f113
1919
111b
1520
1121
1123
2925
ed26
1529
dd2b
ed2e
e92f
e930
1d31
1933
ed34
e535
1d38
113d
113f
1140
2545
d149
194a
114b
114d
194e
e151
ed52
f153
1156
1157
1558
ed59
cd5b
195d
1062
f065
cc67
1868
ec69
dc6a
106b
f06c
f06e
f070
3471
d872
ec73
e875
f078
dc79
ec7a
1c7b
147d
e480
1083
1484
f085
1486
ec87
dc89
f08a
f08c
f08e
1091
d492
e894
ec95
1097
ec98
1099
e89a
d89d
f0a2
14a5
eca6
24a7
14a8
f0a9
f0aa
d8ab
ecac
18ad
24ae
10af
d8b1
e8b4
e4bd
ecbf
14c6
10c7
10c8
20ca
eccb
1ccc
10cf
ecd1
1cd4
10da
f0df
18e1
ece3
10e4
14e8
c8ea
28eb
20f0
ecf1
10f3
e0f8
10fb
10fd
10ff
e501
110b
150e
2114
e116
2518
191a
ed1c
f11e
1121
1923
dd26
1529
ed2b
dd30
1131
1133
f134
1137
1138
1539
f13a
113b
193c
e53e
d540
1d42
1145
214c
254e
ed4f
f151
e152
e154
e15b
115c
f15e
cc62
ec63
ec67
2468
f069
e06a
e072
ec73
f075
1c77
f078
147d
ec80
ec82
ec88
2489
f08c
148d
f08e
e08f
e492
e494
f095
f096
1899
ec9c
d49d
e0a2
f0a3
10a5
e0a6
d8aa
e0ab
18ae
e8b2
1cb3
ecb4
e8b5
ccb6
c8b7
18b9
14c1
c8c9
e0cb
10cc
14cd
e8cf
f0d0
e4d1
ecd2
10d7
14d8
ece0
f0e2
e8e3
c8e5
e8e6
20e7
1ce9
ecea
14eb
dcee
ecf1
10f6
ecfc
10fd
18fe
e103
ed05
ed08
e909
1d0b
ed0e
1d0f
f111
ed13
1914
e117
2118
e51b
d91c
ed1e
151f
1521
f122
d126
1127
f12e
1931
d132
e934
1135
ed37
d53b
153c
f140
1141
1545
f146
1d47
e149
ed4b
154c
154e
1150
ed52
1153
215a
e95b
f15c
1462
1465
ec66
e869
e06a
1c6c
1070
ec72
1474
ec76
dc78
e079
187c
e47d
187e
ec7f
f082
e483
e885
f086
ec87
e888
c489
108d
ec8f
d891
1493
e494
109a
cc9c
cc9d
209f
10a1
f0a2
e8a3
f0a8
cca9
e8ab
1cae
f0b4
ecb7
18b9
14c0
10c1
14c2
10c3
10cd
f0cf
f0d2
d4d3
1cda
e8db
1ce0
10e4
2ce7
10e8
10e9
ecee
20f0
e4f1
10f3
e4f5
18f6
dcf7
e8f9
e8fb
d4fc
18fd
10ff
f100
1506
e908
e109
150c
190f
f110
1511
f115
1516
1518
e51b
e11c
d91e
111f
1522
2523
ed26
e92b
e130
ed32
1133
e936
e938
2d3c
253d
dd3e
1541
2942
ed44
1945
1147
1148
f14a
ed4b
154c
154e
194f
1d50
f153
e956
1959
e95b
115e
ec61
1862
1468
d06a
e06b
1c6c
ec6d
1072
dc73
2474
2475
f076
1877
dc79
207c
1889
ec8c
e88d
f08f
1090
e491
dc92
e094
f097
e499
109a
c89c
cc9d
189e
eca0
10a1
eca4
e4a5
10a6
10a7
e0a8
f0ab
10ae
18b1
20b3
10b6
ecb7
dcb8
f0ba
ecbc
10bd
b4be
1cc2
ecc6
e8cc
ecce
f0d1
14d3
18d4
18da
10dd
d8df
dce0
10e2
ece6
18e7
e4ea
10eb
dcf2
dcf4
18f6
e4f7
e8fb
f101
f102
2105
1106
c507
e908
f109
110b
210c
1d0e
210f
c511
e913
e915
e919
251a
f11c
191d
e920
ed24
f129
ed2a
e12c
112f
1530
1131
1534
1135
ed36
2137
e539
ed3b
153c
153e
1941
e144
1145
114c
1d4d
114e
194f
e952
1d58
f15b
1062
1065
1066
1467
1868
e06a
106c
146f
1074
1075
f077
e479
1c7a
e481
1084
f087
f088
1889
108e
f097
1098
f099
109a
e09c
f09d
d89e
10a2
e0a5
10a7
24aa
10ab
ecb1
1cb6
ccba
dcbb
ecc0
b4c5
f0c8
cccc
dcce
f0d0
f0d1
10d5
14d8
14db
10dc
f0e3
f0e4
e4e6
10e7
ece9
14ea
10eb
e8ee
24ef
1cf0
ecf2
14f4
f0f7
18fa
10fd
f0ff
1500
d104
1106
f10d
250f
dd10
1912
e11b
151d
1522
ed24
dd27
ed2c
f12f
f131
ed36
d938
f13b
ed3e
f13f
1941
e544
1145
f146
1949
c54c
214f
1553
e158
ed5b
e55d
115e
d462
1866
e86a
1c6f
1470
1873
1c78
e479
e47d
1082
1c84
1485
1486
1088
c889
ec8b
ec8f
e890
f091
d492
1093
1097
e49c
ec9d
14a2
f0a3
10a4
d4ac
30ad
e8b1
18b4
20b5
14b7
ecbf
10c8
18c9
f0cc
e4cf
14d8
14db
f0de
10e1
14e5
10e7
10eb
10f0
dcf2
ccf4
e0f7
1cf8
10f9
18fa
1d04
e910
f114
2d1c
191d
d923
d524
1525
f12e
e92f
1530
f131
e936
f138
e93a
213e
f143
b545
d946
154b
ed4c
114d
114f
f153
e955
f157
f158
1d5c
155e
e460
f061
1063
2866
1467
e86a
c86d
186f
1872
1473
f077
1878
e079
287a
ec7f
f081
1082
1c84
1485
208a
ec8c
f090
1c92
1493
1095
ec9a
d89c
e49d
e89e
f09f
1ca2
e8a4
e0a5
10a6
1ca7
f0ab
e8ac
10ad
f0b1
f0b5
e0b8
ecc3
d0c6
e8c8
10c9
dccf
d0d0
14d2
e8d3
14d4
ecd6
e4d9
18db
a8de
2ce0
cce3
10e7
f0e8
d0ea
10eb
f0ec
e0ed
14f0
d4f2
14f4
ccf7
e8f8
10f9
14fb
e4fd
e8ff
dd04
1507
dd09
110f
e916
111a
dd1c
151d
151f
ed24
f127
ed2c
1133
f134
e53a
e93b
113c
e13d
313e
e93f
e546
1548
1949
154b
154d
e151
1152
d553
e154
ed55
d957
1559
195c
1d5d
115f
e060
1063
e465
1c68
e469
f06a
286b
c06d
246f
1072
1875
e079
ec7a
107d
e483
1485
1886
c087
e88c
ec8e
d490
1c91
3492
1093
ec94
1c95
e89a
e49c
e49d
149e
d09f
10a2
dca3
10a5
10a9
18aa
c8ac
18b2
e8b5
10b6
24b7
1cb8
ecb9
e4ba
18bc
e4bf
f0c1
d0c3
1cc5
ecc7
f0c8
10cb
10cc
18cd
cccf
14d0
10d2
f0d3
1cd4
e8d5
10d7
e0d9
e0de
18e3
14e4
14e6
e4e8
14e9
ecec
10ee
18f0
f0f1
bcf4
1cf7
24f9
e8fd
20fe
f102
1507
1108
ed0a
150d
d110
e914
e116
d917
111b
f11c
111f
1121
d524
1926
ed2a
e12c
112d
1d30
1132
bd3a
113c
e53d
c13e
c53f
1142
f144
c146
b549
154e
1950
ed51
d55b
215c
115d
dc60
f061
1864
e065
cc67
ec6a
1c6b
106d
1071
ec76
cc77
ec79
dc7a
107d
107f
ec83
2086
2889
e48c
188d
cc8f
d890
1091
1896
ec97
f098
ec9a
e09c
e49d
10a2
e0a3
f0a4
1ca5
e0a6
20a7
10a8
24a9
c8ac
14ad
dcb1
10b2
e8b3
14b4
e8b5
20b7
20bc
10bd
10be
14c0
d0c3
28c5
14ca
28cc
18cd
ecce
d8cf
e4d0
ecd5
e8d6
ecd8
f0d9
10db
14dd
10df
e4e0
f0e1
f0e2
10e3
30e4
10e6
d0e8
14e9
10ea
1ceb
ecec
e0ed
18f0
10f4
dcf7
e8f8
f0fc
24fe
1104
ed05
1907
1108
f109
ed0b
e50c
150d
210f
f114
d917
d919
e923
d924
d125
1527
112a
e92f
1934
bd35
2138
1939
cd3a
e93b
b13e
c93f
ed44
f145
c146
1148
194b
e54c
214e
d954
1555
115a
cd5b
1d5c
1860
ec61
f066
ec67
d06a
1c6b
186d
ec6e
ec6f
e072
1477
1878
ec79
107b
1482
ec83
1c84
e885
2086
e887
e889
d88a
e48c
1c8d
d08f
e490
1892
1093
dc94
1895
dc97
1899
d09c
dc9d
cc9f
14a2
1ca4
18a5
10a7
10ab
14ad
10ae
b4b2
18b4
ecb9
e0bb
14bd
dcc3
f0c8
10c9
18ca
10cd
18ce
cccf
ecd0
18d1
e8d3
e4d6
14d7
f0d8
dcd9
e8da
38de
1cdf
1ce1
e8e4
f0e8
14ea
14eb
e0ec
f0ed
14ee
1cef
24f2
24f7
1901
d904
1d07
d509
ed0b
110e
1912
f116
f119
111b
ed1d
191e
191f
ed20
ed24
c925
e926
1927
192a
192c
e530
1932
1933
1136
1138
ed3a
e93d
293e
c13f
f142
1545
e946
e54c
d953
1154
115a
f15b
155c
155d
3860
3862
1066
f069
d06a
106b
1071
1c73
1875
e877
1878
e079
e87d
1883
e885
2c86
188a
e08c
148d
d88f
e890
1492
1093
e494
1095
1096
ec97
1098
d09c
c89d
d89e
f09f
e8a0
e0a2
cca6
1ca9
20ab
10af
d8b5
1cb6
14bd
f0c1
ecc3
10c5
dcc7
10c8
14c9
10cd
dccf
1cd1
e8d4
18d7
f0d8
10d9
10dd
10de
d4e3
f0e5
10eb
d0ec
e8ed
34f4
10fa
e0fc
1901
ed03
e105
f106
2d07
dd09
f10c
1910
e916
ed17
c118
e119
f11a
111b
f11d
111f
1522
e123
e124
d525
e926
192d
f134
e135
1536
1538
113c
f13d
253e
d13f
1545
ed46
254c
194e
1152
e553
1555
1957
1d5c
195f
1860
d867
d06a
186b
1470
2073
d874
1477
1078
dc79
e87d
d87e
1083
1484
1487
1889
108b
e48c
cc8f
ec91
1092
1093
f094
1095
f097
1099
d09c
c89d
ec9f
d4a2
eca3
10a4
eca6
18aa
e8b2
f0b3
f0b5
1cb6
10bd
f0c3
dcc6
10ce
c0cf
18d0
18d1
d8d4
30d9
ece0
f0e2
10eb
e0ec
eced
14ee
14ef
ecf1
10f4
20f7
10f8
14fb
18ff
1901
f105
2107
e109
e90b
ed0c
f10e
2d10
1912
1913
c918
e11a
ed1c
e91e
1120
e124
d925
f126
1127
192a
112e
f132
e134
1936
ed3a
153b
113c
253e
d93f
ed42
f143
314c
1d4e
1d52
e553
1156
f158
1959
215c
155f
1060
e062
1064
1066
d86a
ec6c
1071
2073
d074
1078
ec7a
e87d
e07e
f080
f081
f085
e888
1c89
108b
e08c
e090
d092
1493
e494
1095
1098
dc9c
d09d
109f
40a3
14a4
dca6
14aa
d4ab
ccac
d8ad
ecae
ecb2
d0b3
f0b5
1cb9
e4bb
e8be
d4c3
14c8
f0ca
d4cb
10cc
e0cd
eccf
14d1
f0d2
e8d3
ecd4
10d9
10dd
20de
14df
cce2
d8e4
e0e7
10e8
18eb
e4ec
e8ee
10f2
18f7
24f8
1d01
f102
1105
e508
e90f
1d10
1116
dd17
e518
e919
dd1a
ed1c
ed1e
ed23
d524
e525
1527
ed28
212a
dd2e
e130
ed32
e537
cd3a
e93e
f13f
e941
e942
1545
d946
194c
194e
1950
1552
d955
1156
f158
f15a
115c
e95d
1060
e068
c06a
146b
186d
ec70
e474
1075
ec76
1077
dc79
f07f
2483
1087
e48c
148d
c48f
e890
f091
2092
1493
dc94
ec96
ec97
c89c
cc9d
f0a3
10a4
e4a5
14a6
14a8
d4a9
d4ab
14af
f0b1
20b5
14b6
c8b7
1cbc
f0bd
1cbf
e0c3
1cc5
10c8
14cb
c4cf
10d1
ecd2
14d3
14d4
14d5
ecd7
e8d8
18d9
14da
e8db
18dd
10de
18e1
e8e2
14e5
14ea
10eb
ecec
ecee
ecf2
ecf3
1cf4
10f6
dcf7
ecf8
10fa
10fc
10fd
1cfe
1d01
e102
1105
e909
f10a
f10e
1112
1d13
f11a
f11b
111d
151f
1122
e924
e525
ed28
112b
e92c
192f
1530
dd34
3135
e937
293e
1d40
e542
e947
114b
114e
e151
1952
d154
d555
ed5a
1d5b
155c
1060
ec63
2065
d067
e869
d06a
246b
246d
e86e
f074
1c75
f076
bc79
c07a
1c7b
f07d
ec7e
1081
2c87
e88c
dc8f
1893
e094
e499
cc9c
d09d
189e
289f
f0a0
18a2
10a4
f0a6
20a8
d8ab
18ac
20af
10b0
10b5
10b6
e8b7
10b8
e0b9
18ba
18bc
e8bd
28bf
14c0
18c2
1cc4
10c5
dcc6
e4c9
14ca
18cc
e8ce
d8cf
10d0
f0d2
14d3
30de
f0e2
10e4
e8e7
dce9
24ea
10eb
d0ec
10ed
ecee
14ef
f0f0
b8f3
14f7
18f8
e0f9
10fa
18fb
ecfc
ecfd
1cff
ed00
1d01
e502
4507
ed08
d509
dd0f
f114
e916
ed17
e91c
151d
e91e
f123
e125
112d
212f
2935
1936
213c
1d3d
113e
e93f
2140
2141
e542
ed45
1d46
1547
1d49
194c
e951
1152
d953
e556
f159
1d5b
115e
1862
1465
c06a
146b
286d
2470
1475
1476
1877
c479
c07a
107b
e87d
f080
1081
e883
1c84
1087
1c89
d88c
d08f
2892
2093
1496
d09c
c49d
10a1
f0a4
f0a6
f0a7
10a8
10a9
d4ab
10ae
18b1
e0b2
10bd
e8be
28bf
14c2
ecc7
ecc8
d0c9
10ca
18ce
dccf
18d0
24d1
f0d3
f0d4
e8d8
1cd9
24de
20e0
e4e2
e8e4
ece7
ece9
30ea
10eb
ccec
14ed
10ef
e4f3
dcf4
10f5
e4f8
e0f9
10fb
2101
f102
1905
2507
e508
cd09
2510
1912
f113
1115
e516
1d18
f11b
e91c
d91e
311f
f120
1922
dd25
e12a
ed2c
152e
152f
1535
f138
113c
ed3d
1d3e
d93f
1140
1141
1946
214c
114e
114f
ed50
ad53
e556
e957
e958
115a
215c
215e
115f
1062
ec64
1465
1869
c06a
186c
e06d
146f
1870
f074
1475
f076
b079
c07a
147b
107e
1881
3483
1484
1485
f08a
dc8c
c08f
2892
2893
1c96
d09c
c89d
ec9f
10a1
f0a2
e4a4
14a8
34a9
dcab
10b1
10b2
14b5
18b6
10bb
10bd
20bf
24c5
ecc6
d0c9
10ca
eccc
cccf
f0d7
f0d8
18d9
1cdb
38de
1cdf
d4e0
14e1
e0e2
10e3
18e5
24ea
14eb
e0ec
18ed
14ee
d4f0
dcf3
10f4
14f5
e0f7
28f8
bcf9
1501
1505
d509
150b
110d
f114
ed16
111a
111d
211f
e521
1522
f124
d525
1526
1127
e92b
f12c
112e
2130
ed33
2d35
1136
1d37
ed3b
1d3c
453e
d13f
1540
1941
1144
e545
ed48
1149
154c
114d
e950
c553
f154
155b
115c
215d
115e
1c60
2062
1c65
c46a
186c
1071
f074
2875
b879
147d
f07e
1082
4083
3089
108a
e88c
d08f
1092
1893
f095
1c96
ec98
109a
d09c
d49d
f09e
109f
f0a0
10a1
20a3
dca5
e4a6
1ca8
10aa
d8ab
18ad
14af
ecb5
10b6
f0bb
10be
e4bf
18c2
14c5
e0c9
d4cc
1ccd
e8cf
f0d6
f0d7
10da
1cdd
28de
10e0
14e1
e8e2
1ce4
ece7
1ce9
30ea
c0ec
18ef
18f0
18f1
d0f3
b0f4
e0f7
b0f8
e4f9
14fa
14fb
e8fe
e8ff
2501
1907
bd09
150b
110d
1110
ed11
ed15
ad16
1517
e118
e919
151a
e11e
211f
dd21
1123
d925
1527
f128
b52a
e92b
ed2d
212f
1d30
4935
153a
113b
153c
ed3d
1d3e
e53f
2140
1144
ed45
1547
254c
294f
1551
b153
d959
255e
3060
e864
1066
cc6a
186d
e472
e874
1075
1077
ec78
b479
f07a
147b
ec7d
1481
4083
1484
f088
b089
e08c
1c8e
d08f
ec90
1c92
1493
e894
e895
cc9c
e09d
149e
f0a7
d0aa
d8ab
10ad
ecae
f0af
f0b3
10b6
10bb
d8c3
f0c5
f0c8
10ce
d4cf
f0d0
dcd5
e8d7
e8da
14dd
40de
34e0
d4e2
10e3
ece5
f0e8
24ea
10eb
e8ec
20f2
e0f3
dcf4
10f6
10f7
24f8
10fe
1d01
1104
e905
1d07
f108
d509
f10c
e910
d916
191a
111e
1d1f
1522
d525
1527
252a
f136
e538
e53a
113b
ed3d
2d3e
d93f
e940
1541
f143
e946
114b
1551
c553
1554
2958
c95a
155c
155d
2460
ec64
1069
cc6a
d06d
1871
1c75
1877
c879
187c
2481
1482
1883
1884
1488
c489
108a
f08c
dc8f
e090
1c91
1892
1093
1094
ec97
1c99
dc9c
d09d
eca0
10a4
10a5
d0a7
38aa
d4ab
10af
10b3
14b5
10b6
14b7
20be
18bf
e8c0
10c2
ecc5
10cc
e0cf
e4d6
ecd7
f0d8
28db
24dd
34de
18df
d0e0
d8e2
ece7
e4ec
18ef
1cf2
1cf4
e4f7
d8f9
18fb
28fe
1901
f102
1904
1105
1906
ed09
110b
150c
110e
e116
151f
ed23
f124
c925
1526
1d28
192b
e52e
1133
2935
e93a
113b
193c
153d
253e
d13f
ed40
ed41
1542
1144
dd45
e546
1548
2d49
114a
114b
c153
dd56
f15a
195b
155d
1460
1c64
1065
ec67
d46a
346d
ec6e
dc74
1075
1877
f078
9c79
d87a
f07e
f080
1882
4083
1884
1085
1086
2089
248e
cc8f
2892
f098
109a
d49c
d89d
209e
f09f
e4a0
e8a4
10a7
1ca9
54aa
ecab
20ac
1cad
1caf
18b1
10b6
f0b7
e4b9
dcba
10bd
f0c8
e0cd
dccf
10d1
ecda
10db
14df
dce0
f0e2
10e5
28ea
c8ec
24ef
10f2
e0f3
24f4
28f7
d8f8
20fb
14fc
10fd
18fe
1101
1903
1905
2107
c509
210a
110b
150e
f10f
1110
ed14
e915
d116
dd18
111f
cd21
1122
f125
1526
2528
ed2b
152c
3935
1137
f139
393e
2141
1146
1948
1949
194b
1d4d
d550
1552
b953
ed54
f155
f158
e15a
195b
195c
1d5e
2060
1c62
dc6a
f06d
d079
1c7a
2082
2883
1084
1888
ec8b
ec8c
dc8f
1499
dc9c
e09d
189e
eca2
10a3
1ca6
10a8
f0a9
28aa
ecab
20ad
ecae
ecbb
10bf
f0c0
f0c4
f0c5
10cc
20ce
eccf
ecd1
18d9
14de
14df
30e0
e8e2
18e3
e0ec
24ef
ecf6
1cf7
30f8
10fb
20fe
e900
2103
1106
1107
ed09
1912
f114
1515
dd16
e518
1d1f
ed25
1135
153d
293e
f145
1152
e153
1954
1d58
f15a
195b
155d
4060
2462
1063
1064
1465
ec67
e469
d06a
1c6d
e86e
1071
b879
1c7a
f080
2c83
1885
1486
f087
1c88
e08b
d88f
ec90
1891
2892
f093
f096
1098
d49c
e89d
149e
f09f
e8a0
10a3
14a4
10a5
10a6
14a7
10aa
e8ab
e8ac
ecb1
18b2
10b3
18b5
18b6
1cb9
10be
d8c2
e0c3
ecc4
10c5
10ca
10ce
2cd0
14d1
10d7
10de
10e0
f0e2
f0e4
f0e6
10e9
d0ec
18ef
ecf1
ecf2
f0f5
ecf6
20f8
f0f9
d8fa
f0fd
14fe
ed02
2904
1907
d509
110c
f10e
1d10
ed11
1d13
e916
d918
ed19
151d
f121
1122
f124
1126
1128
152a
f12b
1530
e932
1536
1537
f139
1d3b
113d
e13f
1143
e547
2d49
e54c
114d
1150
f151
1552
ad53
e955
1957
dd5a
ed5b
155c
dd5e
115f
2860
1061
1862
1865
d06a
106d
e06e
ec6f
1471
e872
1c75
b879
d87a
f07e
4083
1484
3889
ec8b
dc8f
1092
149a
e09c
cc9d
2c9e
e8a0
e0a2
14a9
24aa
e4ab
ecad
18b1
10b5
14b7
1cb8
f0ba
ecc0
f0c2
20c4
1cc6
14c8
e8c9
10cb
14cc
eccf
10d1
18de
d4e0
ece2
1ce3
10e5
20ea
eceb
f0ee
14ef
dcf1
14f2
f0f3
18f4
f0f5
f0f6
1cf7
e4f8
f0f9
10fb
18ff
ed00
e902
e10b
b90f
f111
1512
ed14
ed16
e118
f11c
111d
ed21
ed23
ed24
d925
1127
152a
1930
3935
f139
113e
1d40
1143
1544
d948
1949
194c
e153
e555
1157
1158
e95a
295b
f15d
115e
1061
2065
1069
d86a
146b
146d
ec6e
e878
e879
e880
f083
ec86
e08f
ec90
e093
f094
f096
e497
dc98
1099
e49d
149e
109f
e4a0
44a4
18a6
e8aa
dcab
c8ac
24b5
10b6
14b7
f0b8
ecb9
18bd
ecc3
3cc6
1cc8
18cb
e0cd
18ce
e8cf
1cd0
18d5
14d8
10d9
14db
18de
18e0
d0e2
10e9
e8eb
e0ec
18ee
f0f3
28f4
e8f6
1cf7
40f8
f0f9
14fc
ed00
f101
dd02
1104
ed07
e508
e50b
f10d
f113
f114
1d15
ed1f
e923
e924
dd25
1126
2528
ed29
f12c
e12e
f12f
d53a
113b
f144
d946
ed47
114b
f14e
1150
1152
1154
e555
dd58
295b
2c60
1861
1862
1865
1068
e46a
106b
146c
1c6d
d86e
d86f
d472
2075
d079
107e
2483
ec85
1887
2c89
e08f
2092
ec93
f094
189b
dc9c
d89d
f0a0
18a4
10a8
1ca9
14aa
f0ab
14ad
f0ae
10b0
28b1
24b5
ecbc
f0be
14bf
24c5
f0c8
e8c9
10ca
f0cb
e4cd
f0d0
10d2
f0d4
10d5
ecd6
10d7
24d9
10da
f0dd
1cde
10e4
f0e5
10e9
28ea
e8eb
f0ec
10ed
2cef
ecf2
20f4
24f7
10fd
e902
1905
e909
f10d
ed0e
f10f
e915
d518
ed1b
d91c
e521
ed24
e12c
112f
1130
f132
2135
dd39
f13c
c53f
1d40
1541
f142
2149
e54b
1d4c
ed51
d153
2d57
ed59
dd5a
115b
1861
1862
ec63
1464
ec69
f06a
146d
e873
1476
147a
e07b
f07c
f082
1083
ec87
2089
108a
d48c
dc8f
f098
f099
149b
e09c
249e
eca0
eca2
f0a3
20a4
10a6
1ca9
28aa
dcab
dcac
14ad
e8ae
24b2
e4b3
14b4
10b5
14b9
14c1
dcc2
d4c3
10c5
30c6
e0c9
e0ca
24cc
18ce
14d0
10d6
10d7
1cd9
e8dd
10e0
e4e2
10e4
d8e6
eceb
e4ec
f0ed
10ef
14f0
1cf4
f0f5
34f7
1cf8
ecfa
ed0f
dd11
ed14
e117
dd18
f11a
f11b
e51f
e520
1122
cd24
e925
ed29
3d2a
e52c
112f
2530
f131
1d35
ed39
e53a
1d3d
153e
1d45
d946
ed4b
114c
ed51
e955
1156
1557
2958
f15d
2060
ec61
1862
1865
dc6a
346d
e46e
d86f
e874
3075
b479
f07a
ec7d
ec80
1483
4089
f08c
f091
2092
1093
f096
ec99
d89c
d49d
ec9f
20a9
58aa
20b4
14b6
dcba
14be
14bf
e4c3
18c4
28c5
14c8
ecc9
18cb
eccc
e4cd
10ce
e4cf
18d0
1cd1
14d3
10d5
14d7
10e5
14e9
20ea
ecec
f0ee
ecf4
34f7
ecf8
d8f9
14fb
e502
ed08
e909
150a
e90d
e50f
ed16
e118
1119
e920
e124
e125
392a
112d
3130
e932
4d35
e939
153c
1d3e
2540
1541
1143
1949
2d4c
f14d
ed50
c953
f156
e559
255b
ec66
e86a
106b
146d
dc6e
f06f
ec70
e478
147a
ec7b
f07f
ec80
e881
1c83
e884
1087
2489
f08b
108e
1c91
ec93
d49c
e89d
1c9e
149f
e8a3
28a4
e4a5
10a7
20aa
f0ab
e8ac
e4ae
1cb2
24b7
e4b8
2cbf
e4c2
d4c3
14c6
1cc8
20cb
18cc
f0cd
1cd0
f0d1
14d7
10de
ece2
18e5
e8e6
e4e7
e8ec
ecf0
e0f3
10f7
48f8
e8fa
14fe
f102
1106
1507
f108
e509
ed0d
d918
e51f
f123
e524
e125
1127
f128
152a
e92e
1530
e938
d939
e53a
193b
153d
1140
e946
ed47
154c
d951
e953
1954
1158
1d5b
1c60
1467
d46a
146d
f070
e874
f07a
f080
ec84
3c89
1c8b
e48c
f08e
e890
1091
d894
c89c
cc9d
349e
1ca2
dca3
e0a7
2caa
c8ac
d0b1
2cb2
f0b4
18b5
10b6
f0b7
e8ba
d4bc
14c0
d0c2
e0c3
10c6
1ccb
30cc
e4cd
dccf
f0d6
f0dd
10de
dcdf
f0e0
10e1
f0e2
1ce4
14e6
20e9
14ea
18eb
e4ec
d8f9
f0fb
14fe
10ff
e501
e902
1107
cd08
110a
f10b
e90d
f10f
1d12
1915
ed17
dd18
f11a
f11b
111d
ed21
cd24
e525
e926
212a
f12e
e532
f133
cd36
e539
153c
253d
1540
1143
c946
e947
1549
e94b
194c
e14f
1550
ed51
f153
2154
1558
215b
115d
e861
ec62
1863
1064
1c66
1067
ec6b
1071
dc72
1077
f079
ec7b
247c
e87e
1083
cc85
1886
f088
208a
ec8b
f08e
1c91
f095
e898
109c
f0a0
f0a1
e8ae
e8af
14b0
14b3
14b4
20b5
10bc
18be
14bf
18c0
f0c3
10c4
f0c6
e4cb
18ce
ecd3
14d5
14d7
14da
f0dd
14de
1cdf
10e0
20e3
14e8
ecea
f0ec
eced
f0ee
e8f0
d0f1
f0f2
ecf6
10fc
1509
f10d
150e
dd15
1519
e91a
ed21
e526
e528
e92b
ed2d
1930
e533
1136
ed3c
1941
1d44
f147
d14a
114f
f151
1154
e956
1557
e958
f159
115a
f15c
1d5f
e461
f066
f069
dc6b
146c
146d
ec72
e074
ec75
1077
f07d
e87e
1880
f081
1882
e885
2086
1487
f088
e88b
f091
f096
f09e
1ca3
10ad
e0ae
e0b0
ecb3
20b4
f0b6
ecb7
14b8
10bc
10be
10c1
dccb
14ce
f0cf
14d1
10da
10db
f0dc
e8dd
10e0
14e3
14e5
ece6
f0e8
e4e9
f0ea
f0eb
ecee
f0f3
e8f6
f103
e906
f10b
110c
1110
e911
1d13
e515
e516
f118
ed1a
1521
1122
f127
dd28
112f
ed31
1132
f133
e934
e937
e53c
d540
1d41
1142
1943
1544
d548
f14b
dd51
dd53
1954
f156
ed57
255a
e863
1066
1467
1468
ec69
e86b
106f
f074
2475
1476
f078
2080
1082
1883
2488
1c8a
108b
f094
ec98
e499
149a
209b
f0a0
10a2
1ca3
14a4
f0ae
e8b3
24b4
d4b6
20b8
10b9
10bb
10c0
14c4
e4ca
e8cc
e8d1
14d5
10d6
1cd7
ecdc
c0dd
24e1
10e3
f0e4
10e5
14ed
f0f1
10f2
f0f5
e0f6
1900
1902
1903
f105
e106
f109
d10c
150d
2111
2512
1113
1514
e515
1517
f118
111d
1123
d526
152b
e92c
152f
d531
ed33
1535
ed37
1139
e53c
1140
1542
1545
f148
194f
1150
ed57
115b
e15c
255f
ec63
ec6b
f06d
1074
ec81
1c82
e884
1086
188a
108b
148c
e48d
1490
e895
ec98
109e
e8a0
10a3
1ca4
e8b0
f0b2
1cb4
18b9
10bb
f0be
2cc1
18c7
10d0
ecd1
14d2
f0d4
10d6
20d8
f0d9
1cda
e8dc
f0e3
ece8
d4ef
f0f0
f0f2
f0f5
10f7
e4fa
10fe
2503
1507
1108
e10c
1112
1517
f11a
f121
f122
e924
112b
112c
ed31
e133
1935
e137
1538
1940
1545
e947
d548
e14b
114d
114f
1150
f151
e552
ed56
e957
155d
195f
1064
f069
146c
1476
f07b
e081
2082
f083
e884
1485
f087
148b
e88e
1490
e894
ec9b
10a2
e0a4
10a5
e4a6
10ad
e0b2
20b9
dcbd
f0be
10c2
ecc4
10c7
eccc
10d2
10d5
14d8
f0dc
f0dd
14e2
e4e3
18ea
14f1
e8f3
10f4
10f9
f0fc
14fe
1900
ed01
e102
cd03
1907
1508
1509
e90c
f10f
e511
d912
1915
f122
ed24
f127
1529
112d
ed31
1938
e139
f13a
e93c
ed43
dd4b
214d
1957
f158
e95d
f15e
e063
1864
e469
e46e
ec73
1c76
e877
1878
f07d
1c81
1882
dc83
dc87
148a
108b
d88c
dc8d
e48e
1c90
1093
f095
e896
dc97
1498
e49a
18a1
dca4
f0a8
e0a9
14ad
ecb0
e4b1
d0b2
2cb3
ecb5
d8b6
10b7
18b9
e0ba
dcbb
e4be
e0c4
10c7
f0cc
24d2
10d3
e0d4
e8d5
d8d6
10d7
1cd8
14d9
dcda
10db
e0dd
20e1
e0e3
d8e5
f0e9
10ed
1cee
18f9
e8fc
e8ff
dd02
1903
1905
2106
f108
1d0c
e512
f113
1d15
1516
e917
111c
dd1e
1d21
e922
f124
e526
1927
2128
1129
1534
2538
e939
ed3c
ed42
e943
ed44
1545
1149
ed4a
e54b
2150
1553
f064
f068
146b
1870
f071
1076
ec77
1c78
f079
107b
c87d
f07e
107f
e881
e483
f087
e08b
ec8c
e48d
e08e
d891
1094
e897
189a
d4a0
20a1
eca3
eca4
d0a7
f0a8
e8af
f0b2
20b7
10b8
e4ba
1cbb
1cbd
e0be
14c0
ecc3
dcc4
d8c7
10c8
f0ca
10cb
dccc
14d1
1cd2
d8d4
f0d6
14d8
18da
18e1
1ce2
ece3
f0e4
f0e5
ece6
18ed
28ee
1cef
14f0
28f1
18f2
14f7
10f8
ecfb
10fe
d0ff
e502
f104
f107
2114
1915
1116
e11e
1d24
192a
112b
ed2c
252d
2531
1934
ed36
1937
1138
e13a
ed3e
f142
ed43
ed44
e147
114a
e94d
e14f
dd51
e152
e559
115a
1d5e
255f
f060
e864
1065
1867
1c69
e86e
1471
f073
1474
e075
f07e
e47f
ec81
ec84
dc86
f08c
e08e
e090
e495
d897
14a3
eca7
14b3
e8b5
c8ba
e8be
d4bf
1cc0
f0c2
e4c4
14c5
f0c6
18c8
1cca
28d2
18d3
f0d4
10d5
e0d6
d0d7
f0d8
1cda
18db
24dd
f0de
18e2
f0e3
f0e4
dce7
18e8
14ec
1cee
28f5
30f6
14fb
f0fd
cd00
f101
e102
1d04
1506
1107
ed0a
dd0b
e90d
ed11
ed12
1913
ed16
e117
1118
e91d
111f
e520
ed21
1922
1127
1928
e929
252a
1d2b
dd2e
e932
e533
2134
2537
2538
e93a
1d3b
f13f
f140
1142
dd44
e546
1548
e54f
1950
f151
ed54
ed57
f158
e559
115e
1d5f
e860
1067
2469
186b
e46e
f071
f075
cc76
e07b
e87f
1080
ec81
d883
d888
108d
f090
1093
1c95
1098
1499
f09a
f0a2
14a3
c0a4
f0a5
1ca6
10a8
14b4
ecba
24bc
e0be
14bf
f0c2
e0c4
28c7
1cc8
10cc
18d2
20d5
e0d6
d8d8
14d9
1cda
10dc
f0de
14df
dce1
1ce2
e8e4
d4e5
18e6
20e8
f0e9
e4ef
ecf0
e8f1
10f2
14f5
ecfe
ed00
2101
f102
1104
1d08
e509
e50a
110f
ed13
dd14
1115
1116
e917
f119
1d1e
191f
e520
e121
f124
e926
ed29
312b
152c
cd2e
dd31
1d37
1138
dd3a
e93c
e13f
e142
f143
d544
d946
e949
e54f
1550
1553
e954
e158
f159
115d
2d5f
f060
e461
d464
1065
f067
1068
106a
106b
1c6d
d86e
e870
c873
e476
f077
ec78
1079
147c
107d
f081
1886
1088
208a
1c8e
1090
ec92
1093
e897
1c99
e49b
1c9e
189f
1ca7
e4a9
e4ac
ecad
18b0
10b3
20b4
10b6
f0b9
e8bb
dcbc
18c0
ccc4
10c6
28c7
28c8
14c9
ecca
14d2
24d4
e8d7
10d8
20d9
14df
20e2
10e3
e4e4
e8e5
14e7
1ce8
e8ed
ecf1
18f2
e8f3
ecf4
dcf5
e8f6
10f8
1cf9
f0fc
ecfd
f0fe
ccff
f102
e504
1106
150a
f10e
1510
e514
d517
111a
211d
e120
e923
ed24
e126
1927
192a
192b
f12d
e12e
e12f
e930
e131
2534
f135
e939
dd3a
f13e
e13f
dd42
c943
e544
e546
e54f
1550
1d51
1953
1556
1157
f159
115d
115f
f062
dc63
e464
f066
d867
e069
146b
d86e
e46f
1070
e471
2476
ec78
1079
147d
147e
2081
c882
1883
1488
108d
ec8e
148f
1090
e493
2c98
ec9a
109b
109d
e89f
28a0
d4a1
f0a3
30a5
d8a6
1ca7
1cab
ecac
f0ad
dcaf
e8b1
1cb3
14b4
1cb6
18bb
e4bf
10c0
d8c2
dcc4
24c6
10c7
2cc8
28ca
10cb
1ccd
10ce
18d1
24d3
ecd5
14d9
e4da
10db
10df
10e2
e8e5
18e6
14e7
30e8
10e9
e0ed
d0ee
14ef
18f2
18fa
14fb
f0fc
ecff
f102
1103
2106
ed08
bd0e
f10f
1910
1111
2912
ed14
d917
f119
cd1a
111d
ed1e
1523
f126
152c
192d
f130
2531
e939
ed3a
e53e
ed3f
e542
1945
d147
e549
e94b
e94d
114e
2950
e951
f152
1953
1154
2556
f15f
1460
1061
1463
dc64
f067
2469
106a
e86c
f073
1c76
1478
1c79
ec7b
187f
d882
e084
1885
ec89
e88a
1090
2095
dc97
2498
f09e
10a0
e4a1
eca2
f0a3
10a5
d8a6
e8a8
1ca9
18ab
e4af
20b0
e0b1
f0b4
18b6
20b8
1cb9
14bc
f0bf
ecc1
dcc2
14c3
ecc5
1cc6
24c7
14c8
14ca
18cc
10d0
18d4
e8d7
14d8
1cdc
10dd
dcde
e8e1
1ce4
18e6
10ec
18ed
20ef
1cf1
ecf2
1cf4
14f5
f0f6
ecf9
1cfa
28fc
14fd
1cff
2501
f102
1907
f109
e90e
ed0f
1110
1511
1113
e914
dd17
2119
211a
e91f
1520
ed21
1122
f123
2927
1d28
112a
ed2f
e930
e931
2d36
e537
f139
e93b
ed3e
d542
e547
ed49
114c
f14d
e150
2151
2552
1154
1555
1d56
f157
2958
ed5c
355e
1860
1c62
d068
e471
f073
2476
f07b
dc7c
187d
e884
f086
d888
208e
108f
1490
f091
1493
2494
1c95
f097
f098
ec9b
ec9c
c89e
e8a1
f0a2
18a4
f0a6
18a7
f0a8
ecaa
18b0
14b5
1cb9
f0ba
f0bc
ecbf
e4c0
e4c4
f0c8
10ca
f0cb
eccd
20ce
1ccf
d0d0
20d1
ccd2
c8d6
10d8
e0d9
14da
1cdc
dcde
dce1
18e4
18e7
14ec
e0ed
e4f2
14f4
30f5
f0f6
14f7
e4f8
f0f9
20fa
24fd
1cff
1500
f102
ed04
f106
e909
cd0a
e50b
e90d
1d12
f114
1916
111a
191c
f11f
1120
cd21
1523
e524
f125
112a
f131
ed34
e138
153b
ed3c
253d
1141
f142
2145
1947
1d48
ed49
f14d
194e
ed4f
f152
1553
e954
e557
d95a
195d
2069
2471
2473
1875
ec78
d47b
f07c
147d
f07f
e484
1485
1088
dc8a
148e
1091
ec97
e498
d899
289b
149e
f09f
10a5
eca6
18a7
14a9
f0ad
14ae
18b1
f0b4
18b5
10b8
1cb9
18ba
24bb
e0bc
ecbd
10be
d8c0
10c1
1cc2
10c3
ecc5
e4c7
20ca
10ce
14cf
10dc
ece1
ece2
18e4
ece9
f0ea
f0ed
10ef
f0f0
f0f1
ecf2
e8f3
18f5
e8f8
1cf9
e8fc
38fd
10ff
1504
1107
e10a
1510
1d11
1116
1517
1118
ed19
151c
111d
111f
e521
1522
2123
e527
e928
1129
ed2a
f12b
e52d
212f
1530
e134
dd36
ed37
e138
ed3c
1d3d
f13f
1d42
1143
1544
1545
1547
2548
154c
114f
1553
e956
1d58
1159
ed5d
155e
f060
f062
ec65
1067
ec6d
e46e
f075
e876
f078
147a
e07b
207c
107d
107e
1081
f083
ec84
d48a
1c8b
108d
208e
1091
e492
ec94
e495
e896
d499
209b
f09c
109d
14a1
eca2
14a4
30a5
14a7
20a8
10b0
10b2
10b3
e0b4
10b5
e8b6
ecb7
10bc
20be
14bf
e0c0
20c1
e4c4
10c6
ecc7
e4c8
10c9
1cca
18cb
e4cd
28ce
18cf
10d0
e4d2
10d4
14d7
f0d8
ecda
10db
18e0
dce2
1ce4
e4e5
f0e6
f0e8
e8e9
d8f2
10f5
f0f7
34fb
20fd
20ff
1d08
e90a
150e
e113
111b
191c
1d1d
111e
1d1f
2123
1525
f127
ed2a
e92b
e92c
dd2d
dd2e
112f
ed33
f139
e93a
213b
e53c
f13f
d543
2144
e148
f149
154c
1954
cd55
1556
115c
e55f
dc62
1463
1066
1467
1468
ec6b
246c
e86e
ec6f
f070
e876
f077
e878
1079
107a
1c7b
f07d
107e
c47f
1481
f084
e885
148b
108d
f091
e494
2896
e498
d499
d49a
109b
e8a0
1ca1
24a8
ecaa
d0ac
f0ad
e4ae
f0b3
f0bb
ecbd
14be
10bf
ecc0
14c1
ecc2
d4c3
e8c4
18c6
e8c7
e0c8
10c9
10ca
e8cd
f0ce
18cf
e8d2
10d6
18d7
d8db
f0de
f0e2
d4e6
e4e8
f0e9
18ec
dcf2
10f5
10f8
f0fa
14fb
14fc
d4fe
20ff
b902
e107
1508
e50b
150d
110e
310f
1912
f114
ed16
dd17
1919
191c
151d
111f
d120
1523
e927
dd2a
d12b
d12c
e12d
1d32
e933
2936
e138
c939
f13a
e13c
1d3d
f13e
e943
e146
d147
f148
154c
e14e
dd4f
d951
e952
1153
e955
1156
115a
115b
1d5c
195e
1061
1464
f06b
286c
f06e
e470
f072
e476
e877
1c79
107b
f07f
1480
1481
f084
1886
f089
e88b
108d
1c8e
f090
e891
2c93
e894
1096
ec97
dc99
20a2
10a3
1ca6
14a8
eca9
ecab
f0ad
ecae
dcb0
10b2
f0b4
f0b6
18b9
18ba
24bb
e0bd
10bf
e8c0
e0c2
e8c5
14c6
ecc8
18c9
f0ca
10cf
ecd3
10d5
1cd7
e4d9
10da
d8db
d8dc
e8df
ece3
f0e6
f0e7
e8e8
f0e9
d0ea
10eb
10ed
ecf0
e8f1
d0f2
dcf7
f0fa
ecfb
ecfc
e0fe
e500
1503
d105
e907
1109
e10b
ed0c
e90e
1116
e918
251c
dd20
e522
1524
ed25
1926
dd27
e929
e52a
e12b
e52c
112f
1932
e933
1135
1d36
ed38
1d3b
f13c
153d
193f
1944
e548
ed4b
114c
e54e
e54f
1554
2155
1159
155d
155e
155f
1060
1462
1c64
1467
e06a
e86e
206f
e472
1874
e075
1077
1c78
1079
147c
1880
c882
f084
2086
ec8a
c48b
148d
1893
d894
ec95
1097
ec99
109a
e49d
f0a0
10a2
cca8
e8ab
f0ad
d8ae
c8af
d4b0
14b2
14b3
ecb6
e4b8
e8b9
14ba
e8be
ecc0
1cc1
e4c2
14c3
e8c4
d4c5
e8c6
f0c8
28ca
eccc
14cf
1cd0
f0d2
14d7
f0d8
ecd9
e8da
d8db
f0e6
ece7
f0e8
14eb
18ed
18f3
d4f4
14f5
e4f7
d4fb
dcfc
f0fd
dd00
2103
f105
ed09
210b
110d
1d0f
e910
e912
e11a
ed1b
111e
dd22
2926
e927
1928
e929
ed2a
152b
e52c
112d
f131
2132
ed33
1935
1139
e93a
113b
e13c
113f
1141
e142
dd45
e548
1149
ed4c
e14e
1550
e952
1155
e558
f15a
195f
2c61
1462
d463
e864
1066
1067
ec6e
1c6f
1471
e472
1c74
147b
1c7e
dc7f
1081
ec84
e485
1486
f08a
f08b
d88c
f091
ec94
f099
ec9d
109e
18a2
18a5
f0a7
eca8
10ac
e0ae
1cb0
e8b4
ecb6
f0b9
18ba
e4bb
e8bd
e8c0
14c1
f0c4
ecc5
e4c9
18ca
f0cb
dccc
18cf
e0d1
10d3
ecd8
1cdb
10dd
c0df
ece8
14eb
1ced
14ef
f0f2
ecf4
10f6
f0f7
10fa
e4fb
ecfd
d8fe
dd01
e503
1904
1506
2907
e909
1d0b
d50c
210d
ed10
f111
f113
1114
1118
f11b
191d
191e
b91f
e120
f121
ed22
e127
e529
e92a
dd2c
152e
f12f
1d32
ed33
e936
e138
e13c
d93d
e940
1541
1142
1d43
cd45
1549
114a
154b
e94c
114d
114e
f14f
1551
1153
f158
155c
e15d
f061
e863
2466
1867
ec69
e06a
186f
1871
e472
1073
2475
f07c
ec7d
247e
e481
e485
108a
1c90
ec94
1095
e896
1097
e099
f09a
f09c
ec9d
eca1
eca3
10a5
10a8
10a9
10aa
d8ab
14ac
c8af
18b3
10b8
d8bb
f0bc
e4bd
e4c0
10c1
e4c4
e0c7
e4c8
dcc9
eccc
d0cd
ecce
d4d0
e8d1
18d3
f0d8
e4da
10df
14e0
1ce1
f0e8
f0e9
14ea
10ed
e4f1
e4f2
10f3
18f7
f0fc
f0fd
f102
f103
f104
2505
e507
1508
d909
f10a
1d0b
210d
c513
1517
1519
111c
191e
ed22
1124
e127
f12c
ed33
cd36
1137
b539
253a
dd3b
ed3c
1141
dd43
f145
1146
f147
e54d
e94e
ed58
2559
c55a
255c
d15d
e55e
ec61
1862
ec63
f064
f069
ec6a
1c6d
1871
1472
f079
e47f
1882
1889
148c
1c8e
1890
1091
f092
1895
e496
1498
e09a
e09c
e49d
e89f
18a2
10a3
10a5
eca8
e0af
10b0
f0b1
f0b2
14b3
10b4
14b8
ecb9
d8ba
d8be
f0c6
e0c7
ecd1
20d2
18d3
e8d4
14d7
d8d8
e8da
ecdd
f0e4
1ce5
10e6
e0ed
14ef
14f0
f0f1
f0fd
14fe
f102
1503
1507
150d
1112
1113
1516
1517
1119
211d
111e
e522
1125
ed26
192b
192d
1533
e535
e536
ed3d
c544
e945
f147
1148
e14a
f14c
114f
1d52
ed56
e158
115d
e95e
115f
1064
ec65
ec66
ec67
1069
106a
d06b
206e
e46f
1070
ec71
1475
e876
e477
e079
147c
187f
2083
e884
ec86
1489
188b
288c
ec8d
1891
e493
e895
f09a
e49d
10a4
e8a5
10a8
ecb2
10b3
18b6
14b7
f0b8
10be
14c0
1cc2
f0c6
dcca
10cb
18cc
18cd
f0ce
e8cf
e8d0
f0d1
14d2
f0d3
ecd4
18d5
10dd
ecde
18e1
10e2
18e7
10ec
10ef
1cf1
14f4
18f6
e8f9
10fb
f102
ed0b
f10c
150f
1510
2112
1113
191e
1120
1121
1128
f12c
1935
1538
1139
ed3d
1d3f
1140
f145
f14a
114b
ed50
e552
ed55
ed57
315d
dc60
f061
f062
1463
d065
f067
146b
ec6c
106e
1c70
ec71
1872
ec77
e879
dc7a
147d
dc7e
3480
1883
1085
1886
f087
e88e
2491
1492
e093
2495
ec9c
ec9f
f0a1
f0a2
eca4
e8a6
eca7
10aa
20ae
10b4
e8b5
10b7
10b8
2cbc
10c2
ecc4
10c5
14c8
d8c9
f0cc
20cd
e4d0
14d1
e4d3
f0d5
ecd7
e0d9
e8de
18df
24e0
1ce1
10e4
2ce7
f0e8
10eb
e8ed
10f2
d4f5
e8f9
ecfa
ecff
e902
f106
ed07
ed08
290a
190d
210f
1114
ed19
ed1f
f123
f124
f128
ed2c
1d2f
e531
d132
1d37
113d
153f
1142
1543
e946
ed48
1d4a
194d
1150
f155
1d58
f159
f15f
e465
186a
1073
1877
ec79
2480
1885
1886
ec90
e493
1496
1c97
e0a1
10a3
24a4
10a5
10a6
f0a7
e4aa
1cab
d4ac
10ad
10b1
10b3
10b4
18b5
18b8
ecb9
e4bb
18bc
18bd
14c2
e4c4
18ce
18d0
10d1
e4d7
e4d9
18da
14db
18df
d0e0
1ce1
20e7
10ea
10ee
e4f5
10f9
10fe
1100
1102
f104
1905
2107
ed08
150e
f112
1113
1915
1d17
1118
f11a
ed1d
1520
ed21
f122
ed26
e92d
dd2e
f12f
f130
ed31
ed32
e933
1139
f13a
f13c
e53d
153f
1d40
1144
c146
194a
114d
1d50
1552
155c
155d
1460
d862
1064
e869
146a
ec6b
146f
1071
1473
1474
1077
d87a
2085
1086
f08a
f08e
e090
1092
3097
e898
189d
10a2
e0a3
14a5
f0a6
e8a9
10ab
b4ac
10b1
ecb2
dcb6
20b9
1cbe
10bf
1cc1
e0c3
14c7
10ca
f0cb
e4cc
f0d2
10d4
e0d6
14d8
1cd9
1cda
10dd
14df
1ce0
14e4
14e6
e0ea
f0ee
ecf1
24f4
e0f8
14f9
10fd
10fe
14ff
1500
1d01
1104
e907
e908
1109
190b
ed10
1d11
e915
1516
1518
e519
f11a
ed1d
d91e
2120
e925
ed26
1529
c92c
c12e
d533
e534
1537
f13a
f13b
ed3c
e93e
1940
1d42
2145
a946
e949
ed4c
194f
1152
dd55
1157
f15e
1c60
1061
e867
186b
ec6c
106d
286f
ec72
1476
107a
107b
147d
1888
e089
f08b
148c
c090
e892
1094
1497
109f
10a0
10a2
f0a3
10a4
10a7
e8aa
c0ac
10ad
ecb6
dcb7
d8b8
1cba
10bc
e8bd
18c2
e4c3
e4c4
14c8
e4cb
e8cc
1cce
10d1
14d3
e8d6
f0d7
14d8
1cdc
10dd
14de
14e4
10e5
10e6
14e7
14ea
14eb
d8ec
ecee
dcf4
f0f6
10f8
f0fc
10fd
f0fe
1900
1501
b102
1904
2105
d108
1909
190b
e10f
ed10
1111
ed12
1118
f11c
f123
f124
d125
ed26
e52c
c52e
e930
e132
d939
293b
193d
2941
2542
d943
c946
2147
214b
294c
194d
1150
1951
1d52
e954
d955
1156
1460
2465
ec66
e469
f06b
106f
ec73
1476
107b
e87f
1483
1085
c886
1488
1089
f08a
f08d
148f
b490
1091
1493
e89d
1ca0
d4a4
f0a5
d8a6
dca9
e8aa
d8ab
b8ac
18ae
1caf
10b2
10b5
10b6
c8b7
e4b8
ecbd
f0bf
10c0
ecc1
14c2
d4c3
1cc5
f0c6
e4ce
e0d0
20d3
ecd7
ece1
ece3
18e5
18e6
14e8
18eb
e0ec
18f4
b0f7
10fe
1501
e102
f103
1105
1506
d508
150b
dd15
ed16
1518
ed1c
f11e
1d22
ed24
cd25
ed29
e92a
e92c
c52e
1131
f132
ed34
2135
1137
ed38
e93a
153e
f13f
2140
2141
ed43
a546
1547
f149
114b
1d4c
f14d
1951
1554
e555
f158
115c
e060
f062
1466
ec68
146c
146e
1471
e874
1077
e878
287a
147d
1880
ec83
1086
1888
1489
e88a
148e
d490
1895
1497
109a
10a3
24a4
20a6
d8a7
10aa
e4ab
d8ac
10b2
10b4
18b5
f0bc
10be
d8c3
d4c5
20c8
10d1
f0d4
18d9
dce0
18e1
f0e2
f0e4
10e5
10e7
10e9
e4f1
e4f4
f0f6
2cf7
14f9
14fa
10ff
1500
1502
110a
110d
190e
1513
1915
f116
1517
1118
f119
e124
c525
ed26
192a
f12c
d92e
1135
e53a
153b
e13d
1142
d946
1547
1d49
194b
dd4c
f14d
1950
1556
f159
195c
f060
1062
2068
b86b
e06d
186e
1070
f074
ec7b
ec81
e089
e88c
f092
1093
f09c
f09d
e4a5
e8a7
d0ac
e0ad
10b9
18bb
dcc3
14c4
e4c5
14cd
f0ce
10d2
dcd7
e8d9
c4dd
38e0
10e3
10e5
f0ea
18ed
10f9
14fa
f0fd
f0ff
2100
1501
1905
1106
f10a
e910
1111
ed12
1d17
1d1f
1522
1123
dd24
e125
192b
f12c
112d
e12e
1131
1134
1138
e13a
113b
113c
213d
f141
1143
cd46
1151
f154
f157
195c
ec65
1467
e86a
d86b
186c
f072
ec78
187c
f081
1082
f083
1085
e886
1888
dc89
e48c
e890
1893
ec95
ec98
f099
e89c
e09d
10a2
eca3
1ca6
f0aa
ecab
ccac
14b2
10b4
10b5
14b8
f0bf
ecc3
10c4
1cc6
14c8
f0c9
e4ca
f0cf
10d3
10d4
14db
14de
d8e0
ece1
1ce4
f0e9
dcf6
10f9
1505
1911
1115
1117
251c
151f
1123
cd24
e125
f129
f12c
c92e
e92f
1130
e935
1936
1539
e93a
113c
1941
d546
1547
f148
a94c
1550
2158
d460
1062
e466
1069
bc6a
146f
f072
e879
e87c
ec7f
f088
1889
d08c
dc8f
d090
3493
1096
f09b
c89c
cc9d
1c9e
f09f
14a0
eca4
18a6
d0aa
d4ab
e4ac
20ad
ecb2
e4b5
f0b9
e8bc
ecc0
d0c3
e4c6
e4c8
e8c9
14ce
d4cf
ecd0
14d1
e0d9
dcde
f0df
24e0
cce2
18e5
e0e9
10eb
d4ec
f0ee
d4f0
14f2
d8f4
e4f7
1cfb
10fe
ed02
f105
e507
f108
ed09
210f
1113
e915
f118
151f
1d22
e524
d125
1126
e928
f12a
e12e
1535
ed39
e93a
f13b
1d3c
e13d
1941
f144
e146
1548
2149
dd4a
154e
154f
ed50
1154
e955
e957
1158
f15a
1d5b
e866
e06a
f06d
f072
ec74
1c7a
ec80
1c86
1088
e08c
f08e
ec8f
e494
109a
d89c
e09d
f09e
e8a3
eca5
14aa
dcab
e8ac
e4ad
14b5
18b7
10ba
10bc
d4bf
e0c1
e0c3
1cc5
10c6
10c8
14cc
e8cf
18d3
14d5
18d7
f0da
14db
ecde
f0e2
10eb
ecf3
14f5
ecf8
14fa
1500
e104
f106
2107
f109
1111
1519
111b
111d
ed1e
211f
ed24
f125
ed2d
e52e
ed2f
1134
f135
1138
113d
ed40
1542
1945
e946
1147
114c
1554
1158
195e
1461
ec67
e868
e86a
ec6b
106c
f071
287a
1886
1889
e491
1497
189b
e09c
dc9e
14a2
1ca5
20aa
f0ac
e0ad
14b1
10b7
10b9
c0bf
1cc0
10c5
20ca
18cb
34d5
e8d9
d0e0
14e1
f0ec
14f2
10f7
18f8
10fa
10fc
18fd
10fe
1905
1908
1119
151c
111f
1926
152c
f12f
f133
1136
113b
193c
1d3d
113f
1540
1141
e949
c54c
1954
e95a
f063
f064
f065
2067
ec6a
1c6e
e473
1076
387a
187b
ec7c
1081
c489
148e
1893
f094
f095
209b
ec9c
dc9e
f09f
1ca3
18aa
e8ab
14ae
ecb8
c8bf
10c5
24cc
10cf
e8d0
1cd1
10d2
14d5
f0d9
10dd
10de
ecdf
f0e2
f0ec
f0ee
1cef
d4f3
1cf4
ecf9
18fc
e8ff
1d01
1102
110c
e914
291c
151d
f125
192d
dd33
ed35
ed3d
113e
1941
1144
1147
e54d
155a
1860
ec6b
1c6e
f073
f075
ec79
4c7a
1881
1483
1085
1c87
e08b
e490
1891
f092
1097
e89c
ec9d
e49e
e49f
2ca3
18a4
10a6
f0ab
d0ac
e0af
18b3
10b4
10b5
10b9
b0bf
e4c3
14c5
18c8
f0c9
14cc
18cd
e4d0
10d1
d4d4
10d5
ecd8
e4e0
f0e2
f0ec
10f2
ecf3
f0f4
24f7
dcf9
14fa
18fd
ccfe
1101
1502
f104
1505
1107
f109
210d
e50e
f110
1512
e913
f114
111b
1d1c
f121
e125
ed29
212a
d92f
1530
1d39
e13a
ed3c
113d
113e
ed3f
d546
e54b
c94c
2150
1556
1958
155a
d860
1061
e064
1065
1c67
f06a
d06b
206e
f071
1476
1087
1088
c089
188a
ec90
f091
d892
1493
ec95
1097
ec9c
ec9d
1c9e
1c9f
10a4
10a6
f0a7
10a8
eca9
e4ab
c4ac
e8ad
e4c3
2cc5
20c6
f0c9
28cc
10d5
10e1
e4e2
14e4
10e5
f0e7
e8e9
e4ec
14ed
18f1
14f2
e0f3
10f7
1cf8
f0f9
14fe
1907
150b
150e
f10f
1110
111b
191c
191d
111f
1523
ed24
d525
ed2a
f12c
e52e
e930
1531
ed37
d93a
1d3d
bd3e
1144
1145
c946
1149
ed4c
ed4e
154f
1150
1554
1558
ed59
115b
f15c
ec62
e465
1867
d86a
e46b
106d
ec6f
e879
1c7a
1483
ec86
ec87
2089
108b
e090
1092
1c93
e894
ec95
ec9b
d89c
d89d
10a1
d8a4
10a9
14aa
e4ab
e8ac
24ad
10ae
14af
1cb6
14b7
18b9
1cbc
1cbe
20bf
14c2
e0c3
14c4
2cc5
ccc6
ecc9
10ca
f0cc
eccf
10d0
18d5
ecd9
18e0
e4e2
18ea
1ceb
e0ec
10ed
10f4
14f5
10f6
e0f9
f0fc
e4fd
1501
ed05
f108
dd09
1d10
f113
f115
1117
111a
111b
f121
1922
1523
f124
e525
1529
dd2e
e137
e93a
153c
e13d
f13e
f13f
ed40
dd46
1147
e949
ed4b
e14c
f14d
154e
e957
c958
115a
155d
1860
e46a
f06b
d86d
186e
ec70
2472
1873
e074
f079
f07a
107b
ec7f
e086
1487
f088
2489
108a
f08c
e490
1492
e89b
e09c
e49d
10a1
2ca3
dca5
10a7
e8ab
dcac
18ad
10b7
10c0
dcc3
10c4
f0c6
e0c9
ecca
dccc
10cd
ecce
f0cf
14d1
18d2
e8d6
10d9
18db
14dc
18de
18df
20e0
e4e2
e8e7
2cea
e8ec
ecf2
e4f3
e0f8
14fe
1901
ed04
f108
e909
110c
150d
f116
191a
151c
111d
f11e
e924
d525
1526
2127
252a
e12e
f12f
1930
f131
1132
e535
1138
e53a
193c
cd3d
353e
d53f
f141
1945
e146
214c
154f
f152
1d58
e959
e95b
f15c
155f
1060
ec61
ec64
1067
1069
dc74
e478
407a
ec7f
1082
ec83
1889
108a
f08c
ec90
f098
e89c
ec9d
189f
14a4
2ca6
eca7
f0ab
c8ac
f0ae
10b2
14b4
e0b5
ecb7
10b9
14bd
18c1
10c2
e0c3
20c4
20c5
10c7
14c8
eccf
10d1
14d3
10d4
18d9
14de
20e0
e8e2
e8f4
24f8
f0fa
f0fb
f0fd
1101
1502
1105
dd07
f112
1114
1519
211d
ed24
ed25
1127
292a
f12c
d92e
ed2f
1132
1133
cd3a
1d3e
1544
1145
cd46
ed48
e94c
1156
1d5e
1062
ec6b
146e
f071
e074
2075
f078
f079
f07a
e87f
1882
1884
1088
1889
108a
ec90
1093
e896
f098
e09c
ec9d
10a4
1ca9
38aa
ecac
10ad
14b2
14b8
10be
14c1
14c4
f0c9
14cb
1cce
20d0
14d4
18d5
1cd9
f0de
f0df
24e0
ece2
14e3
10e4
f0e8
24ea
e8ec
28ef
10f2
f0f3
20f7
e4f9
ecfd
2cfe
10ff
1501
1503
f10e
f10f
f112
e914
1515
e516
e518
151c
151f
f121
dd24
dd25
e12c
d92e
f12f
1930
ed31
1135
113c
113e
ed46
1148
e553
ed54
f15b
115c
1d5f
1060
1061
ec62
1065
1066
286d
f06f
1072
ec73
f076
107a
ec7c
e87e
1082
1086
1c8a
f08b
108d
f08e
108f
ec91
ec92
e496
ec99
e89c
ec9d
f0a0
1ca5
1ca9
20aa
f0ac
10ad
ecb3
ecb4
18b5
1cba
10c0
e0c3
20c6
14c8
e0cd
e8cf
10d1
18d5
20d7
18d8
10da
f0df
24e0
18e3
1cea
f0eb
f0ed
e8f1
ecf3
24f4
ecf5
ccf6
18f7
28f8
e8fa
1101
1903
2507
ed09
ed0b
1110
f116
1517
f118
151f
1123
ed25
1526
1128
ed2c
152d
f12e
2530
f132
2140
1141
1d45
f146
e54b
d94c
154f
1150
e553
ed55
e55a
f15c
195f
2465
1c69
186b
1c6d
ec6f
1471
f074
ec78
307a
ec81
1883
1889
f096
189b
f09c
f09d
109e
f09f
18a4
f0a6
10aa
e4ac
24ad
f0ae
14b1
18b8
e8c5
14ca
28cb
24da
20e0
10e1
ecea
ecec
28ef
e8f0
10f1
10f8
e8f9
f0fa
10fe
14ff
1102
ed09
110a
f110
f114
ed18
ed1b
151c
f121
ed24
e925
1126
112d
152f
1530
1935
ed3a
2d3b
113c
193d
3141
e546
f148
1949
2d4c
1554
e15a
155b
1c60
1461
2062
1865
f067
1468
d86a
3c6d
e06e
e074
2075
1077
cc79
dc7a
107b
147f
3883
1887
2c89
2492
ec94
1098
109b
d49c
e89d
1c9f
18a9
48aa
1cad
10b0
10b1
18b4
10b5
f0ba
18bc
10bf
14c1
f0c2
e4c3
1cc4
28c5
10cc
f0cd
f0ce
e8cf
14e3
e8e4
10e5
1cea
18eb
dcec
18ef
e0f3
18f4
14f5
ecf6
18f7
1904
2107
f109
ed0e
c90f
1512
d918
111b
f121
f124
e525
1127
1d2a
3130
2935
f139
153a
213e
2140
1941
f143
1d49
1d4c
e553
1954
f155
1956
2c60
1068
106c
286d
e472
ec74
1c77
247a
f07e
1c83
f085
e486
1487
1889
ec8f
e892
f093
1c98
ec9c
189e
f0a0
1ca4
10a5
f0a9
24aa
e8ac
20ad
10b1
f0b2
14b5
f0b7
14bb
1cbf
f0c3
24c6
10c7
10c8
10ca
14ce
14cf
ecd0
10d5
d8d7
10d9
10da
e4dd
10de
10df
28e0
f0e2
10e3
10e5
10e8
14e9
f0eb
ecec
18ef
f0f1
1cf2
f0f3
34f7
28f8
f0f9
1904
1906
f107
ed10
f111
ed12
1515
f116
ed18
1119
f11b
e91f
ed21
e923
e524
d525
1128
2930
ed32
2d35
1936
1d3b
213e
1541
1544
1145
e946
1949
c94c
ed53
1554
1557
f158
e95a
f15c
f15e
1061
f069
146a
ec6c
386d
ec6e
e478
147d
e880
1c88
2889
f08a
f08e
f08f
e090
1092
e893
d899
109b
d49c
e09d
349e
14a6
14a9
d8ac
24b2
10b3
1cb5
24b7
e8bd
1cbf
d8c3
18c6
10c8
18c9
24cb
14cc
18ce
dccf
ecd3
ecd6
10d9
28e0
14e1
e4e2
14e3
14e9
f0eb
dcec
14ee
10ef
ecf5
14f7
ecf8
10fa
10fe
18ff
2501
f102
e908
f10c
ed0d
1111
ed16
f118
f11f
1520
f121
bd24
e525
1926
1529
292a
192d
e92e
1d30
dd32
2135
f136
1938
e13a
ed3f
f141
1943
1545
dd46
1150
ed53
2154
2556
ed5b
1060
1069
206d
f072
1079
407a
f07f
1083
1086
1489
f08e
ec90
f093
ec94
ec96
e099
ec9a
109b
f09d
289e
109f
30a3
18a4
14a6
e4a7
10a9
f0ab
84ac
10ad
e8af
10b2
14b5
e8b6
10bd
18c1
f0c3
f0c5
24c6
14c7
1cc8
18cb
1cce
ecd0
14d5
10da
d8dd
10de
10e1
e8e2
14e4
e4e7
10ed
f0f1
e8f5
ecf6
40f8
14fe
10ff
f100
f10b
e90d
1d11
1912
1514
e518
f11a
211e
1120
d524
f127
ed2a
152b
ed2c
e92f
1930
2135
c93a
193b
453d
e93e
1545
ad46
f147
194b
d14c
f15a
1d5b
155d
ec60
f062
1066
e46a
e86e
d874
f078
e879
307a
e47b
1889
f08a
f08b
1c8e
e490
ec93
e899
ec9a
f09b
e09c
ec9d
2c9e
10a3
1ca4
e8a5
14a6
20a7
d8ab
f0ac
e0ae
20b2
e8ba
f0bc
f0c0
e4c5
18c6
28c8
ecc9
1ccc
14ce
f0d0
10db
1cde
38e0
f0e2
e0e6
f0e8
e0eb
f0ec
1cef
f0f0
e8f2
e8f3
2cf7
2cf8
e0f9
1cfe
14ff
f109
1510
e911
1912
2515
d918
ed21
ed23
e124
e125
1126
1d28
212a
f12e
1134
e13a
113d
f13f
e943
ed46
214b
e551
1d56
1558
f159
ed5c
2060
d862
1064
d06a
106b
e46c
146d
f06f
e873
e074
e475
f079
2c7a
147b
f07f
f080
e084
e886
c88f
ec90
1492
1893
dc94
1097
f099
c89c
d09d
2c9e
e4a1
e4a4
10a6
10a8
14aa
f0ab
d0ac
24af
e8b0
24b2
f0b4
10b5
10b6
10b7
f0b8
20b9
e0ba
10bc
f0bf
10c0
1cc2
ecc3
14c4
20c5
1cc6
10c7
10ca
2ccb
28cd
ecce
f0d3
20d5
e0d6
18d9
30de
20df
24e0
14e1
24e4
20e9
10ea
10eb
c8ec
18ed
20ef
e8f2
ecf4
f0f5
24f7
e8f9
e8fc
10fe
1cff
dd07
e508
ed09
ed0b
d90d
1910
ed15
ed16
e917
ed18
d919
e91a
111c
1d1d
f121
1522
1923
d924
d525
ed26
ed29
e92a
e52b
ed2e
1930
1134
1d35
f139
e93a
193b
2d3d
1d3e
dd3f
1941
ed42
c946
f148
e94b
214c
1956
f157
1d5e
1160
1561
dd63
1564
f165
e568
f16a
ed6b
d96e
1170
1572
ed73
f175
1d7a
297b
157c
cd7e
e581
e185
f188
ed8b
e98f
f190
ed91
f195
b996
f199
d59a
c19d
f19f
25a0
dda1
11a2
21a3
f1a4
d9a6
d9a7
e1a8
dda9
25aa
1dac
11af
15b0
2db1
ddb3
15b4
15b5
e9b6
15b8
f1b9
25bc
edbd
e1be
15c1
edc2
e1c3
19c4
21c6
1dc7
1dca
e9ce
c1d2
15d3
19d5
add6
e1d8
edd9
3dda
15dd
dddf
2964
2565
1966
e967
216d
ed6e
1970
2171
e974
cd75
1178
f17a
1d7b
117c
f17d
e181
f182
1d83
2184
ed89
358a
198b
e98e
dd8f
dd91
e594
1595
e996
1d99
ed9a
219b
d99d
f19f
e5a5
c5a6
e5a7
dda8
11aa
edac
2daf
f1b0
e5b2
d9b3
ddb6
edb8
19bc
b5be
ddc2
25c5
21c7
19c8
f1c9
15ca
11cc
11ce
25d0
31d1
d1d2
11d5
cdd6
ddd7
e9d8
d9d9
f1da
dddb
d5dc
2ddd
e1de
1963
ed64
1165
e166
1967
e969
f16c
c56e
2570
d576
e978
e579
157a
cd7c
e17d
c57e
e580
2981
1582
dd83
1584
1985
1586
e187
118a
e18b
298e
ed91
1594
e995
ed96
e997
d198
f19b
119d
15a2
f1a3
29a5
e1a7
15a9
21ac
f1b0
15b1
15b5
d9b6
15b8
f1bc
15be
e9bf
f1c2
e5c3
f1c6
15cc
11ce
15cf
edd0
29d1
d1d2
11d3
d5d5
cdd6
15d7
11db
dddc
eddd
21de
f1df
cd60
1d61
1962
e164
f165
1d67
1d68
bd69
e16a
296b
d96d
296e
116f
d970
3971
2172
2173
1d74
1175
d576
b178
dd7b
157c
e97d
f180
c581
1982
e183
b984
c185
1986
c188
2989
dd8c
1d8d
198e
e58f
d590
1991
f196
ed97
2199
e59c
c59d
e19e
b9a0
11a2
dda3
2da4
2da6
21a7
d5a8
ddaa
15ab
11ac
35ad
35ae
e1af
e1b0
15b1
15b2
d1b7
f1b8
19bb
e5bc
21bd
11be
edc0
ddc1
11c5
ddc6
21c9
b1ca
e5d0
9dd1
e1d3
25d4
edd5
11d7
edd8
15d9
25db
25dc
b5dd
2dde
1ddf
2560
1562
b963
dd65
1568
e56b
ed6c
d16d
f170
cd71
1573
2d74
f176
2578
ed79
217a
dd7b
297c
157d
1d7e
117f
1d81
ed83
e184
e985
1987
c58a
e98c
e98d
218e
2d8f
bd90
e593
3198
3599
e59a
e99c
f19d
299e
cd9f
e1a0
19a4
19a5
d9a7
f1a9
e9ac
21ae
ddaf
2db0
e5b2
f1b3
21b4
d5b5
e5b6
15b7
31b8
41ba
f1bc
25bf
21c0
f1c1
2dc4
d5c5
2dc6
19c7
e5c8
21c9
edcb
c1cc
21cd
19ce
ddcf
d5d0
15d3
25d4
21d5
1dd9
e9da
21db
35dc
29de
1ddf
1d60
1161
f165
1566
dd68
1169
e96b
196d
d96e
196f
1570
2572
2174
1577
1d78
1979
d97b
117c
e97d
d97e
ed7f
1180
e181
e182
1183
dd84
f185
1986
1988
118b
e58c
158d
e98f
d991
e592
3593
c594
1d95
d196
1197
d999
ed9a
f19b
d59d
399e
1da0
e9a2
eda3
e9a4
f1a5
d5a7
d1a8
eda9
15aa
e9ab
19ad
19ae
f1b2
e5b3
21b4
21b5
11b6
19b8
e5b9
19ba
e9bb
edbd
f1be
21c1
21c5
edc6
39c7
1dc8
e5c9
29ca
d9cb
1dcd
21cf
d5d2
3dd3
ddd6
19d8
e1db
e5dc
19dd
e9de
1560
a563
e964
f165
2166
1167
2568
bd6a
156b
ed6f
ed71
2173
1d77
1578
2d7c
157f
e580
1183
1d86
1187
1588
1989
c18a
198b
d98d
398e
118f
1d95
1996
2997
2598
3599
419b
d99c
bd9f
e5a1
1da4
f1a9
19aa
e5ac
d1af
11b0
11b1
d5b2
f1b5
d5b6
2dba
2dbc
11bd
2dc0
edc2
31c3
a5c5
21c6
edc7
2dc9
edca
f1cb
25cd
15ce
f1cf
39d0
f1d1
21d4
15d7
19d9
1ddc
15dd
11de
19df
f162
e163
1565
2d66
e167
2968
4169
b96b
316d
e96e
116f
1570
1171
f172
e173
e974
e975
1976
1177
1d79
e97a
117b
257c
e57f
2980
1581
1583
1185
e986
1587
3188
2589
218d
118f
ed91
ed92
1593
2d98
2599
ed9a
119c
f19d
259e
dd9f
e5a1
11a3
d5a7
21a9
e5ab
f1ad
19b0
e1b1
e9b2
29b5
ddb6
15b8
21bc
e1bd
19c0
11c1
1dc2
11c3
1dc4
11c7
e9c8
e1c9
19ca
19cc
e5cd
e5ce
e5cf
11d1
e9d2
1dd3
e9d4
f1d6
e1d7
2dd9
e5dc
11dd
f160
1561
1962
ed63
bd66
1d6a
316c
f16d
dd6e
156f
1172
e576
217a
197b
d57c
dd7d
e57e
157f
3981
2982
1584
1986
ed88
e189
e18b
f18f
1191
e992
e993
dd95
e997
dd98
d199
119a
f19b
1d9c
159d
e19e
29a2
dda3
15a6
eda7
31a8
29a9
bdab
2dac
31ad
f1b1
ddb4
c5b5
f1b7
e9ba
15bb
29be
e9bf
edc3
d9c4
f1c6
19cd
edd1
d9d3
11d4
f1d5
edd6
f1d8
e5d9
e1dc
11dd
edde
1160
d961
d563
1164
f165
1168
2569
bd6a
ed6c
e16f
1170
e571
ed74
2176
1577
2178
217b
e180
f181
1583
f185
2187
2d89
dd8a
158d
158e
f18f
d590
1992
2194
1595
1598
2199
e59d
199e
f19f
19a0
e9a1
dda2
11a3
11a4
f1aa
29ab
d9af
35b0
e9b2
f1b3
f1b5
edb9
e5bb
1dbe
19c0
cdc1
f1c2
29c3
15c4
e1c5
f1c8
ddcb
21cd
15ce
21cf
e5d3
31d4
11d7
29dc
25dd
11de
1960
1163
e965
f167
1169
316a
216b
ed6c
d96d
1d6e
d170
f171
e972
e973
1176
ed77
f179
f17a
117e
f184
ed85
e986
2587
1588
f189
e18a
f18c
1d8d
318f
1191
1592
e993
359a
e99b
359d
159f
e9a0
25a1
15a2
11a3
15a4
1da7
25a8
e9aa
11ab
edac
f1ad
ddaf
f1b4
f1b5
25b6
f1b7
15b9
f1ba
25bd
19be
e1c1
25c2
e5c5
19c6
e5c7
21c8
edca
19cd
39cf
e1d0
e5d1
d9d5
19d8
19d9
e1da
f1de
15df
d561
dd62
1963
4965
1166
d167
356a
e96b
256d
1170
d973
e174
dd75
2178
e57a
f17b
e97e
e57f
f180
f182
f184
e586
1588
d989
118b
258c
ed8d
d58e
d58f
3590
c992
2193
1195
e997
e598
1199
1d9e
e19f
49a0
1da1
e9a2
e9a4
1da6
e9a7
25a9
edab
d5ad
15ae
29af
edb2
edb3
ddb4
21b5
e1b6
edb8
11b9
e5ba
11bc
c1bd
e1c0
cdc2
1dc4
11c5
21c8
d1c9
25ca
19cb
15cc
e5cd
bdce
35cf
d1d4
d5d5
c5d7
c9d9
f1db
e1de
eddf
2961
ed62
2564
1d65
d966
2d6a
396b
396c
ed6d
216e
bd6f
4970
dd71
d172
d973
e574
e975
1576
2979
d17a
197b
ed7d
e17f
e180
1583
1984
d986
2987
2588
cd89
198a
198b
f18c
298d
d98e
1d90
3591
2193
e194
2595
e597
dd98
2d9a
299b
159c
159d
2d9f
15a0
d9a1
41a2
25a3
e5a5
1da6
3da7
2da8
39a9
e5ac
bdad
c1ae
21af
f1b0
d1b1
1db2
39b4
e5b5
39b6
d1b7
11b8
1db9
d5ba
25bb
cdbc
ddbd
19be
2dbf
21c1
29c2
ddc4
29c5
f1c6
f1c9
15ca
31cb
1dcc
d5cd
f1ce
ddcf
31d0
e5d1
19d2
15d3
cdd4
41d5
f1d7
c5d9
e5da
eddb
e1dc
d5de
ed60
1961
1162
e169
e96a
ed6c
196d
1d6f
2172
1574
c576
1577
1178
1579
297c
f17d
ed7e
157f
f181
f184
c587
1589
ed8d
198e
d98f
ed91
ed92
2993
1997
1d9b
119e
f19f
19a0
f1a4
19a5
19a6
f1a8
15aa
f1ab
19ac
15ad
e5b2
e5b3
19b5
d9b6
21b7
f1b9
29be
19bf
19c1
e9c2
edc3
1dc4
11c5
15c6
1dc8
f1c9
19ca
15cc
19cf
19d0
edd1
e5d2
f1d4
d1d6
f1d8
11db
dddc
11de
e9df
1160
1961
1163
2564
216a
216b
e96d
e56f
1170
e173
cd74
e977
b578
1579
dd7b
157d
157e
e97f
e580
2182
cd83
2584
c585
f186
ed87
cd88
c589
e58b
e18d
bd8e
1d90
1591
1193
d994
dd95
1196
dd97
ed98
dd99
e19d
ed9e
199f
d5a0
11a1
11a2
e5a5
e1a6
11a7
d9aa
e1ad
edae
19b0
21b3
f1b5
c1b7
f1b8
bdba
1dbb
edbc
ddbe
15c1
15c2
c5c3
19c4
d5c7
edc8
15c9
21cf
25d1
e5d8
bdd9
25dc
d5dd
f1de
e560
3161
f162
2163
1d65
ad66
2568
116a
216b
216c
e96d
156e
1d6f
1570
2171
f172
e973
e576
1177
ed78
f17b
d97c
ed7d
157e
e97f
2180
1d81
ed82
1986
ed89
218a
dd8e
3590
2d91
2196
f197
ed98
e599
2d9a
259c
159d
e19e
119f
29a0
1da1
31a2
d1a3
f1a5
eda6
29a7
1da8
29af
f1b1
35b2
21b4
15b6
e9b7
21b9
f1ba
31bb
f1bc
ddbd
11c0
19c1
e9c4
15c5
e5c6
21c8
e9c9
19cb
11cc
25d0
15d2
e9d4
e5d5
11d6
edd8
e9dc
e5de
dddf
e960
1d61
3962
1166
1967
1168
196b
ed6c
d16d
c570
1971
2973
2174
2575
e176
1d77
e978
e579
117a
c57b
257c
257d
297f
1581
2582
1183
d184
e585
f188
1589
298a
e58c
218e
258f
2d91
e594
1d95
2196
3998
3199
e59a
1d9b
e99c
f19d
159f
dda0
25a2
ddaa
edac
11ae
e9af
19b3
d1b5
11b6
15b7
e5b9
11ba
31bb
d1bc
25bf
f1c1
21c3
15c4
edc5
19c6
e5c7
f1c8
15c9
cdca
d9cb
21cd
1dd0
e9d1
d9d5
15d6
29d7
e1d8
19d9
e9da
15db
11dc
e9dd
19df
e960
1962
1163
1165
2166
d569
ed6b
e96d
196f
e570
3571
2172
1d73
2574
1d75
f179
d97b
117d
217e
f180
1581
1d82
e584
1185
5189
1d8a
e98b
e18c
318e
158f
e190
1194
ed95
2d97
2d98
f19a
e19b
e19d
c5a1
f1a3
31a4
39a5
dda6
eda8
d5a9
f1ab
15ae
31b0
d9b2
edb3
e5b5
ddb6
15b7
edb8
19b9
e9bc
11bd
29c4
11c5
1dc6
ddc8
29c9
f1cb
d1cf
e9d0
e5d1
15d4
19d6
15d7
21d9
2ddb
39de
1ddf
1d60
f162
1964
e165
d16a
ed6b
f16c
d96e
e170
e171
f174
f175
2977
1978
2179
f17a
117c
257d
d97e
2d83
e185
2587
f188
1189
318b
e58c
218d
3591
e594
4595
f196
1198
2d99
e99a
159b
d19c
ed9e
319f
eda0
1da2
3da3
e5a6
1da7
e9a8
d5aa
edac
edaf
11b0
19b1
11b2
15b4
19b6
21b8
d5b9
25bb
11bd
d5be
11bf
21c0
edc1
e1c2
2dc3
e9c4
edc9
1dca
c5cb
cdce
15cf
21d0
11d2
d5d4
f1d5
21d8
25d9
edda
f1db
e9dc
c9de
d9df
1960
e961
f162
ed63
1964
d967
2168
3d69
216a
156c
116d
2170
ed73
c575
2576
1578
e97a
397b
157c
117d
dd7f
1581
e982
3584
1186
3588
e189
298c
e98e
e192
e997
219a
f19c
219e
21a0
11a1
31a3
c5a4
21a5
19a9
15aa
39ab
adae
21af
e5b1
11b2
f1b3
11b4
f1b5
edb6
25bb
edbd
e5bf
15c0
e5c2
f1c3
21c7
d5c8
edc9
29ca
19cc
d9cd
11d0
1dd1
29d3
d9d4
1dd5
f1d6
e9d7
11d8
e1d9
c9da
e5db
25dd
1560
dd62
2164
a565
e167
e568
c56a
1d6e
156f
dd73
e574
4579
d57b
dd7f
9d82
1583
e185
1186
1d87
1188
c58c
118e
1d8f
c590
e192
d994
1597
e59b
199c
299e
dd9f
dda0
dda3
cda6
d5a7
cda9
15aa
25ab
15ac
2dae
e1af
f1b2
35b4
11b5
e5b6
25b7
3db8
b9b9
2dba
11bb
35bc
d9bd
c5be
29c0
1dc1
ddc2
d1c9
15ca
d9cb
c1cc
f1d0
25d8
1dd9
dddb
11dc
d1df
a960
1561
1d63
b564
2d65
1167
1d68
196a
116c
d96d
216f
1d71
1174
b176
ed77
f178
dd79
f17b
dd7c
d97d
ed7e
1d7f
1580
2582
e183
1985
3186
d187
e588
318a
f18e
f18f
e993
1196
1198
2199
f19d
d99e
e9a0
11a1
1da2
dda3
15a4
e9a7
e1a8
f1aa
1dab
39af
31b1
15b2
f1b3
d9b4
ddb5
ddb8
e5ba
19bb
edbc
41c5
15c6
11c8
15c9
edca
11cb
1dcc
2dcd
11ce
f1d0
e1d3
25d4
e9d5
29d7
d5d8
d9d9
29dc
e9dd
19de
1560
f163
e965
f167
dd69
b16a
e56e
d16f
2170
1171
e572
e173
ed74
1d76
2177
2d79
257b
e97f
cd81
ed82
ed88
1d8d
218f
2993
1995
1d98
259b
159c
f19d
259e
15a0
1da2
eda4
d1a5
d1a6
19a7
e5a8
e1a9
e5ab
e9ac
e5ad
f1af
f1b0
e9b1
19b5
15b6
21b8
b5b9
1dba
21bc
e5bd
edbe
25bf
29c0
3dc1
15c2
19c3
19c5
19c6
edc9
25ca
ddcb
d9cc
d1ce
f1d2
25d3
e1d4
e5d7
1dd8
15d9
15da
f1db
e9de
1560
1561
1162
1166
2167
dd68
f16a
ed6f
e171
f172
1975
ed76
3177
e17b
217c
197f
1181
3583
ed84
1986
ed87
f18a
218b
198c
118d
218e
198f
f190
e591
d992
1d93
e996
2197
1998
dd9a
119b
dd9c
d99d
dda0
f1a1
25a2
19a3
e1a4
eda6
e5a7
e1a8
c9a9
edad
c5b1
f1b2
19b3
15b5
25b7
19ba
25bc
c9bd
ddbe
f1c2
2dc6
c9c8
21cb
f1ce
15cf
19d0
f1d1
c5d2
e9d3
c5d6
15d7
25d9
19da
eddd
e1de
e5df
c162
e963
e565
dd66
ad67
cd68
b16a
116c
196d
156f
1d70
2172
b173
e974
d175
2578
1d79
b57f
1980
d981
d582
1185
1d88
f18a
198b
ed8c
e18e
218f
e990
1191
f192
1993
d194
1195
dd97
1998
e59d
1d9e
f19f
11a2
f1a8
19a9
19ad
39ae
edaf
e9b0
29b1
f1b2
15b5
e1b6
19b8
bdb9
15ba
15bc
d1bd
cdc2
21c7
19c8
11ca
c1cb
edcc
e5cd
25d3
edd4
11d5
bdd7
19da
dddb
25dc
f1df
2d60
1561
e962
1563
f166
ed67
3d6b
156c
116d
356e
e16f
ed70
d971
e172
2d76
dd7a
157b
ed7c
1d7d
2580
1983
cd86
cd89
f18b
118c
418d
d58e
e98f
2d91
f195
1996
e997
e198
f199
e59b
119d
f19e
359f
eda0
19a2
19a6
4da7
15a9
e1aa
21ab
e9ac
e9ae
35b2
19b3
edb4
25b6
25b8
11b9
edba
19bb
49bc
e5bd
15be
21bf
d9c1
25c2
d9c3
d5c4
1dc5
e5c6
e9c7
11c8
e5c9
15cd
15ce
11cf
d1d0
d9d1
15d2
e1d3
21d6
edd7
e9d9
f1da
eddb
11dc
25dd
f1de
e164
2165
1d66
1567
f168
216a
cd6b
b56c
b96e
116f
3970
1973
3574
c976
2d78
397a
117b
157c
e17d
8d7e
e980
1181
2183
4185
e586
c187
2188
2d89
a98d
1190
b591
c992
3d94
b596
1997
1198
2199
ed9a
119b
459c
ed9d
399e
e59f
15a0
e1a1
11a3
c1a4
29a5
39a6
bda7
21a8
e9a9
69aa
bdab
55ac
31ae
1daf
d5b2
b5b3
1db4
cdb6
21b7
31b9
1dba
d1bb
ddbd
35be
e9bf
f1c0
c9c2
2dc3
1dc4
d9c5
25c6
25c7
d9c8
19ca
21cb
45cc
e5ce
c9cf
c1d1
85d2
95d6
25d9
35da
11db
e1dc
21dd
e9df
2961
3563
2964
e167
f168
ed6a
196b
dd6c
c96d
196e
c96f
e171
c972
b974
1175
1576
2177
1178
1579
b57a
2d7c
1d7d
297e
d980
2983
bd85
1d87
1188
2589
e98a
258b
1d8d
2d8e
258f
d990
2191
1192
3593
1195
1996
1d97
2998
1d99
119a
119d
259e
25a2
21a3
e1a6
e9a9
b5aa
1dab
b1ac
bdad
d9ae
19b0
f1b1
21b2
25b3
19b4
edb5
1db6
2db7
31b8
11ba
15bb
41bd
cdbe
29bf
2dc0
21c2
1dc3
edc4
2dc6
e9c7
e9c8
f1ca
d1cc
1dcd
19cf
d9d1
11d2
19d4
39d6
11d8
ddda
f1db
31de
1561
e162
2d63
2164
1d65
e166
f167
1968
3d69
116a
156b
296c
1571
f172
1574
ed75
e576
f178
e579
217b
ed7f
1180
1181
e984
1985
ed86
ed87
d989
4d8a
e18b
dd8c
2190
1191
ed92
e194
f195
e996
f198
219f
1da2
25a6
11a7
11a8
3da9
1dac
1dad
e5ae
35af
11b2
e1b3
ddb4
e9b5
1db6
ddb7
e1b8
21b9
e5ba
15bb
ddbd
25be
e1c0
19c1
e5c2
edc3
e9c4
2dc5
e5c6
21c8
f1c9
21cb
25cc
edce
e1d1
d9d3
e9d4
e5d8
d9d9
d1da
f1db
d1dc
11dd
e1de
d9df
e962
e964
1d6b
156c
396f
2972
2174
f175
d976
b977
1578
c579
217b
2980
2d81
f182
c983
3584
2585
e187
e988
f189
e18a
d58b
e58d
d98e
d18f
2190
1192
e593
d595
1996
ed97
1199
1d9a
c99b
19a1
d1a3
eda4
2da6
21a8
25a9
21aa
1dad
1daf
e5b0
2db1
15b2
e5b6
15bb
2dbe
e9bf
edc2
c9c3
25c7
15c8
3dcc
15cd
29cf
bdd0
15d1
edd2
11d4
15d5
f1d6
e9d8
e5d9
2dda
d9db
11dc
15dd
2d61
d162
3164
d167
f168
1d69
dd6a
156b
e96c
216d
316f
1170
e171
e173
e974
f175
1576
2977
1d79
197a
e17f
1d80
ed81
c982
2984
1188
e989
118a
e98e
d18f
e192
3993
e594
2d95
219c
1da0
15a2
21a3
bda4
e9a5
dda6
eda7
d5a9
31aa
25ac
e9ae
e5b0
11b1
f1b2
cdb3
11b4
1db5
19b8
d9b9
19bb
d9bd
f1be
2dbf
25c0
21c1
cdc2
1dc3
1dc7
cdc9
25ca
f1cd
e9ce
1dcf
21d0
15d2
2dd3
29d5
e9d6
c9d7
1dd8
1dda
d5db
eddc
f1de
e1df
d962
1164
c967
1568
e16a
116d
e56e
d96f
e173
e974
c175
1176
1977
1979
e97a
c97f
d983
1988
e98a
118b
e58c
dd8e
1190
1993
dd97
e599
259b
15a0
11a3
eda4
c5a5
e5a6
f1aa
e9ad
e9b0
11b4
15b5
f1b7
f1b9
edba
edbb
2dbc
f1be
25bf
1dc2
e9c9
e9cd
f1ce
29d3
cdd4
15d6
e9d7
1dd8
e5d9
f1da
eddb
c9dc
d1de
15df
1160
4161
e962
1163
2164
d965
d566
ed68
e569
ed6a
dd6d
196e
e56f
d570
e572
e974
2977
d57a
f17b
e17c
f17d
f17e
e980
dd81
1d83
e985
1986
1588
158c
318e
1d8f
2191
ed94
2595
3199
299b
1d9f
e9a0
f1a1
2da2
eda3
d9a4
e1a5
f1a6
15a7
15a8
eda9
e9aa
21ab
e9ac
ddad
e1ae
e5af
d5b0
ddb1
19b2
f1b3
d5b5
15b7
39b8
11bc
f1bd
f1be
2dbf
35c0
19c1
e9c2
35c3
c1c4
edc6
edc7
1dcb
d5cd
e5ce
11d0
15d3
d1d4
19d5
e5da
e5db
f1dc
eddf
e961
1162
c563
e565
1966
2167
f168
c56a
e56c
156f
ed70
1172
1573
1d74
1176
d577
e178
1579
1d7a
157d
157e
157f
f180
f181
ed83
dd85
2d89
ed8a
f18d
318e
118f
d590
1d92
e993
1594
3d96
2597
2d99
119a
159f
f1a2
c5a6
21aa
e9ab
25ac
c5af
11b0
11b1
21b2
15b3
e9b5
25b6
31b7
f1b8
19ba
e5bb
15bd
edbf
e9c1
1dc2
ddc3
31c4
c5c5
31c6
e9c7
edc8
25c9
c9cb
d9cc
1dcd
2dce
e9cf
f1d0
1dd2
21d4
11d5
1dd6
2dd7
39d9
e9da
e5dd
19df
1561
d962
ed63
ed64
3165
f166
f167
3569
156b
256c
2d6d
116e
3d70
1171
ed73
f174
ed75
2576
1177
4179
157a
2d7b
1d7c
e57e
e182
1585
e586
1188
1d8a
1d8b
2d8c
f18e
2d90
dd92
2993
ed94
1595
e196
e597
1198
159a
2d9b
159c
dd9f
39a0
11a2
25a3
d1a4
f1a5
1da6
1da7
15aa
11ac
d9ae
11af
e9b0
e1b3
2db4
edb7
2db8
19bc
d9bd
3dbe
35bf
1dc0
11c1
2dc3
1dc5
15c7
19c8
d5c9
31ca
21cb
1dcc
ddcd
d5ce
21d0
e5d2
19d3
c9d4
15d5
d1d6
e9db
c5dc
29dd
d5de
cddf
e960
d961
1168
e96b
f16d
e96e
1d74
ed76
1578
dd7d
ed7e
ed80
1986
a987
158d
ed8e
ed8f
d191
1994
d596
f199
ed9a
159c
dda2
dda4
11a5
e5ad
11ae
11b1
edb3
d5b4
edb6
19b7
d9b8
edba
b1bb
b1c0
19c1
e9c3
11c4
19c6
31c7
11c9
2dcb
edce
e9cf
c5d2
edd4
d9d6
11da
e5dc
1561
1564
c168
1569
cd6c
d56e
e56f
f170
1573
1d75
ed76
1977
d179
e57a
197b
257c
f17e
217f
d180
1d81
1982
3983
2584
bd85
3588
1d89
e18a
218b
218c
b18d
218e
158f
b991
ed94
2195
e996
3d97
2999
159b
159d
eda0
1da2
31a3
eda4
15a5
d9a7
11a8
c9a9
ddaa
f1ab
edac
e5ad
e1ae
e1af
11b0
edb1
15b2
21b6
2db7
11b8
e1bd
e1be
11bf
15c0
11c1
19c2
29c3
19c4
d5c5
9dc8
d5ca
35cb
edcf
11d1
e1d2
edd3
29d5
11d7
21d9
15db
11dc
2160
3561
f162
1566
1d67
1d6b
b96e
ed6f
1173
dd74
e978
d97a
197c
2d7d
d97e
e581
1983
1584
f185
f186
ed87
f188
358b
dd8d
dd8f
f190
e992
1193
c594
2995
e996
ed98
2d99
e99a
299b
d19c
f19d
199f
29a2
31a3
bda5
11a9
c5ac
11ad
edae
21af
11b0
2db2
2db6
15b8
f1b9
31bb
25bc
ddbd
11bf
19c0
f1c3
25c4
edc5
35c8
e9c9
11ca
c5cb
e5cd
11cf
21d0
25d1
e1d2
31d3
ddd4
15d7
e9d9
c9dc
c9de
dddf
1160
1561
2562
ed63
3564
1565
1166
1167
1168
1169
156b
216d
f16e
e96f
f171
f172
1174
2d77
1578
f179
317c
ed80
f182
1583
e584
e587
2d88
1989
318b
198c
198d
d992
e194
2d95
3197
1598
e59a
1d9b
dd9d
cda1
11a2
2da3
dda4
eda8
e9a9
15aa
11ab
21ac
e5ad
e5b1
19b2
f1b3
15b4
2db5
25b6
11b7
11b8
1dba
11bb
e5bc
c9bd
25be
25c0
25c1
15c4
11c5
21c6
d1c8
edc9
19ca
f1cd
f1ce
e5cf
21d0
d9d1
edd2
19d3
d9d4
25d5
e1d6
11d7
11d8
25da
21dd
e1de
eddf
d161
dd62
1963
1164
e967
1569
1d6a
2d6d
d973
f174
c175
1578
1d79
f17a
317c
1981
e582
1d83
1585
1586
d187
1189
298a
1d8b
498c
198f
e990
b591
d992
f193
e994
2595
a596
1d99
dd9a
dd9d
119e
e59f
15a1
dda2
1da3
a9a4
15a5
cda6
c5a8
ddb2
edb4
29b5
f1b6
21b7
e1b8
b1bb
15bc
e9bd
c9be
29bf
e9c1
19c5
11c6
25c7
11c8
edc9
25ca
edcb
ddce
1dcf
d1d2
d9d3
d5d6
edd7
eddb
ddde
e5df
bd60
3162
2963
cd64
1165
3167
1d68
196a
396b
116c
f16d
156f
f170
4571
1d72
1d73
2575
dd76
f177
d978
e979
197a
cd7b
c17d
1d7f
1181
2d82
1583
ed84
e987
e588
1189
358a
ed8b
e18c
e58d
f18f
3191
1d92
1d93
dd95
1596
1597
ed98
1599
159a
299c
1d9d
d19e
c9a0
c5a3
eda5
15a7
21a8
d1a9
29ac
2dad
21af
f1b0
35b2
11b3
bdb4
21b6
15b7
e9b8
2db9
1dbb
d1bc
2dbd
21be
e5c0
15c1
19c2
e9c4
31c5
e1c7
29c8
45c9
b5ca
19cc
1dcd
19d2
b9d3
19d4
cdd5
21d6
2dd7
e5d8
31db
e9dd
19de
39df
e560
1961
c564
1567
e968
ed69
e96b
ed6d
d56e
256f
3170
f172
2173
2974
2575
dd76
1978
d979
1d7a
397b
157c
e17d
d17e
117f
2184
1d85
d187
158a
b98d
f18e
118f
cd91
e196
1598
e999
119e
d59f
11a0
25a5
21a6
eda7
1da8
25aa
ddab
45ac
25ad
11af
d5b0
d5b2
15b5
ddb6
15b7
19c1
19c4
edc5
15c6
15c7
11c9
31ca
f1cc
19d0
e9d2
21d4
19d5
e1d6
e1d8
e1d9
31da
15db
f1dc
e1df
3960
1161
1d62
3964
1167
d168
1d69
ed6b
116d
ed71
e572
e574
1975
2976
2177
2d79
d17a
117c
197d
ed80
cd81
2183
dd84
e185
cd86
1d87
2188
258b
118c
198d
e98e
158f
f190
d591
c192
2593
c594
3195
d996
2198
e99a
319b
d19d
e99f
29a3
e1a4
c9a5
f1a7
b9a8
e9a9
c9aa
f1b1
edb2
d5b3
21b5
e9b6
2db8
e5b9
25ba
ddbd
19bf
2dc0
15c2
1dc3
11c4
1dc6
e5c9
15ca
edce
edcf
31d0
edd1
edd4
15d5
d1d6
21d8
dddc
11dd
cdde
d1df
2961
e562
2965
e166
d567
2969
196b
156c
256d
2170
d572
ed73
d575
3578
1579
157b
b97f
2580
e182
e183
1184
1d85
2588
e989
2d90
e193
d197
e598
ed99
159a
1d9b
259e
159f
31a0
25a2
e9a4
e5a5
2da9
1daa
21ab
15ad
e1ae
1daf
d1b0
31b4
15b6
11b8
2dbc
1dbe
11bf
29c0
d9c3
ddc4
29c5
e1c6
19c7
15c8
c9c9
31ca
d5cb
15cc
edce
19cf
19d1
edd2
31d3
edd4
31d5
c1d7
1dd8
d9d9
e9da
cddb
41dd
e1df
2d61
1162
e164
d166
e968
e169
1d6b
116c
b16d
256e
c170
f171
ed72
1573
f176
ed78
2179
e57a
cd7b
1d7f
2182
d983
d988
198a
d98c
118d
118e
ed8f
2191
dd94
e595
1596
f199
dd9c
d5a0
21a2
c5a3
1da4
f1a5
25a6
11a7
d5aa
29ab
e5ad
11af
ddb0
21b1
15b2
d9b4
c5b5
e9b9
e5ba
21bb
f1bc
1dbd
f1c0
19c1
15c2
2dc3
edc4
f1c6
e9c7
19c8
19c9
c9ca
15cb
29cc
19cd
15ce
19cf
11d0
e1d1
c9d3
e9d5
15d6
1dd8
19d9
11dc
e1dd
21df
dd61
d162
1963
1d6a
156d
e96f
1170
dd72
d174
e975
2176
1577
1579
dd7a
217c
117d
e97e
d57f
1d81
e582
2983
f186
f187
2d88
e189
1d8a
398b
2d8c
198d
1590
e592
f194
3195
e596
1199
359b
199c
e9a2
25a3
e5a4
21a7
eda8
edaa
edab
e5ad
f1ae
15af
e5b1
e9b2
f1b4
15b7
edb8
15b9
e5bb
e1bc
e5bd
e9be
11bf
15c0
15c2
15c3
19c5
d5c9
29ca
edcd
edcf
1dd0
ddd2
d9d3
e1d4
edd6
f1d7
11d8
f1d9
f1da
f1db
d9dc
11dd
f1de
b1df
1560
1961
ad63
2966
d56a
cd71
1172
1575
f177
317c
157d
c580
e181
1183
e586
1189
b58a
f190
ed94
1995
2598
3199
219b
dd9c
199e
d19f
d9a1
15a2
25a3
f1a4
31a6
e1a7
e1a8
e1ac
e5b2
ddb3
e9b5
c1b6
1db7
19b8
39ba
1dbb
39be
11bf
2dc0
ddc1
d9c2
11c3
25c4
d5c5
21c6
f1c8
f1c9
e9cb
29d0
e9d1
e9d3
15d7
15d8
11d9
eddc
11dd
ed60
2561
1162
1163
f164
1567
ed68
e569
416b
2d6c
c56d
c56f
e570
f172
1d73
2d76
e177
ed78
d979
cd7a
157f
1d84
d186
1187
d989
f18b
e58c
e98e
2590
1591
1592
3193
e594
dd95
1596
e597
1199
319a
e59b
459d
e99e
299f
d9a0
29a1
31a2
d9a3
35a6
35a7
21a8
29a9
29ab
edad
ddae
11af
d5b0
d9b1
2db2
19b3
d5b4
cdb5
19b6
ddb7
f1b9
21bb
19be
25c1
e9c3
d9c4
15c5
cdc6
d9c7
d9ca
21cb
15cc
19cd
25ce
e9d0
19d1
1dd2
f1d4
15d5
1dd6
19d7
d5d9
21db
eddd
15df
1d60
2d61
dd62
dd65
ed66
e167
bd6a
d16f
f170
ed73
ed74
e975
1176
1d79
ed7a
157d
217e
1983
1585
1187
ed88
1d89
318d
218e
318f
d190
1592
dd94
1998
e99c
199e
f19f
eda0
19a2
e1a5
dda6
1da8
25ab
e9ac
21ae
edaf
21b3
e9b6
1db7
31b8
bdb9
25ba
19bb
2dbc
39c0
21c2
e5c4
11c7
35c8
c9cb
d1cc
21cf
e1d0
15d2
25d3
f1d4
f1d7
15d8
31d9
15da
b1dc
e9df
1d62
c564
f165
f166
1168
156b
3d6c
d16d
d16e
216f
e970
1972
f173
2d74
e176
dd77
e179
197a
d17c
117d
3180
2981
d583
3186
e588
218a
c98b
c98c
c98e
d98f
2990
1591
e593
2594
bd95
cd97
ed98
c999
1d9a
a19b
199c
259d
29a1
e5a3
2da5
11a6
15a7
2da8
25a9
15aa
15ac
2dad
2dae
f1af
3db1
1db2
b5b5
11b6
e5b7
e9ba
ddbc
f1bd
19be
edbf
11c0
e1c3
f1c5
e9c6
edc7
25c9
e5ca
29cc
1dcd
f1ce
c5d0
15d4
ddd5
f1d8
d9d9
21da
15db
d9dc
f1de
e9df
e560
2161
1162
1163
d964
2968
2569
116a
d56b
e56c
156d
e56e
1d6f
1d73
1175
b176
f179
d17d
dd7e
ed80
1d82
1985
e587
3589
158a
e58c
118e
d191
e592
3994
cd96
1199
a99a
f19b
119c
c19d
f19f
15a3
15a4
19a5
c5a6
e1a7
d1a8
d5a9
15ab
11ae
edb0
edb1
e1b2
11b5
d9b6
15ba
e1bb
cdbc
ddbe
e5c1
edc6
29c7
25c9
d1cc
e5cf
add2
e1d5
d1d6
1dd7
d9d8
25da
21db
25dc
d560
4161
e563
2d64
d566
dd67
f169
cd6a
556b
156c
e56d
2d6e
cd6f
dd70
e171
f172
d174
e975
1976
e577
e97a
197c
257d
e97f
2180
f181
e982
1184
d585
3188
e189
e18c
298d
158f
f190
2991
2192
bd94
1996
e197
dd99
159a
d99c
399f
f1a0
e9a1
3da2
15a4
a5a5
31a7
25a8
1da9
a1aa
55ab
a5ac
f1ad
e5ae
f1af
e9b1
39b2
29b3
15b4
e9b5
3db6
f1b7
1db8
e5b9
11ba
29bb
19bd
1dbf
25c0
e1c1
19c2
e9c4
29c5
f1c6
31c8
f1c9
e5ca
edcc
19cd
1dce
15d2
35d5
29d6
ddd9
ddda
e9db
1ddc
11de
15df
2560
1961
1164
2d66
e967
cd6a
e96c
156d
ed6f
1d70
e972
e973
c574
2576
3577
2179
d57a
1d7c
417d
e97f
e584
e985
2587
e188
ed8a
1d8b
f18c
258d
e98e
ed90
2191
2992
2593
ed94
2195
1596
dd97
259b
e19c
ed9d
199e
f19f
e9a1
35a2
29a3
2da4
b9a5
c1a6
19a8
c1ac
f1af
15b0
e5b1
1db2
39b4
f1b6
f1b7
2db8
e9b9
21bb
3dbc
25bd
ddbe
3dc0
21c4
e9c5
f1c7
e9c8
e5cb
15cf
11d0
11d2
3dd3
21d8
11da
d9db
15dd
d9de
31df
e561
1965
e968
dd69
156c
2171
2972
1574
d177
e978
197a
1d7b
e57c
ed7d
1180
1d82
f183
1184
2986
dd88
dd89
d98b
e98c
e58f
1190
1594
cd95
e997
1d98
dd9b
219c
119d
19a0
19a1
e1a2
15a4
19a5
e5a8
15a9
15aa
1dae
11af
f1b0
55b1
e9b4
e9b7
ddba
e9c0
e1c3
19c6
f1c7
19c8
19c9
15ca
f1cc
39cf
e9d0
edd1
e9d9
11da
19df
ed60
e963
2564
d565
1d66
c56a
cd6c
e171
1d73
ed75
1576
d177
ed78
ed7e
197f
c580
1182
3584
e585
ed86
1d89
dd8a
ed8b
c58d
318e
f18f
c190
1996
2599
159c
f19d
f1a0
eda1
e5a6
c9a7
bda9
f1ac
19ad
edae
d1af
25b1
f1b3
15b6
19b8
11ba
15bb
f1be
edbf
29c0
edc1
e9c2
e9ca
cdcb
c1cc
15cd
1dce
1dcf
11d2
11d4
15d5
e9d8
39d9
e9da
35dc
e5dd
25de
1ddf
b160
1d62
1963
1164
e965
ed66
2167
e969
156a
2d6b
f16c
d56d
f16f
dd72
1973
d574
ed79
d57a
d57c
117f
1582
e585
1586
d58b
b98d
298f
1190
1991
1993
c998
e199
119a
2d9d
119f
15a0
11a7
21a8
e5aa
e1ad
d9ae
d5b0
11b3
e5b4
19b9
f1bc
19bd
19c1
1dc2
e9c3
2dc5
e1c6
ddc7
15c9
ddca
11cb
25d1
19d2
f1d3
15d4
f1d7
ddd8
e1da
f1dc
e1dd
19de
11df
2960
d961
cd62
1566
c567
f168
1169
216a
216d
216e
ed6f
1572
cd73
c975
d577
ed79
217c
c17f
1980
f182
1585
1187
f189
e98e
e593
c994
f197
1198
1599
ed9b
1d9c
219e
d59f
f1a0
11a1
eda2
1da3
c9a5
29a6
f1a8
21aa
11ab
e1b2
d9b4
15b5
e9b6
e1b7
e9b8
e9b9
f1bd
11be
19c1
11c5
11c6
29c7
21cc
c1cd
c9ce
19cf
f1d3
d1d4
e5d7
f1d9
e5de
1960
f164
1966
dd67
d968
156d
f16f
f170
1171
f174
1979
117c
e980
f181
1582
1583
d584
ed8a
f18d
f18e
118f
dd91
d992
dd93
ed94
1998
159b
c19c
199e
d59f
19a3
15a5
e5a7
dda8
eda9
e1aa
d9ac
11ae
cdb2
19b3
1db4
35b5
11b7
ddb9
d5bb
21bc
21c4
25c6
15c7
f1ca
d5cb
f1cd
edce
1dcf
11d2
11d6
15d8
11db
eddc
d9de
1ddf
bd60
2961
2563
f164
1d65
3d6a
256b
356f
f170
d574
e176
d978
d579
e57a
d17b
ed7c
f181
1d82
f183
ed84
d985
ed88
118a
f18b
d98c
ed8d
ed8f
1990
ed95
1d96
dd97
f198
159b
259c
f19d
e59e
319f
dda0
f1a1
29a2
c9a5
eda6
1da7
11a8
e1aa
21ad
19af
f1b0
39b2
ddb3
25b4
29b6
e9b8
d1bc
39bd
e9be
19bf
15c2
31c5
f1c6
cdc7
29c9
d9ca
f1cb
25cd
1dd0
1dd2
f1d5
25d6
11d7
c9d8
d1d9
1dda
cddd
21df
e960
1962
e164
2566
dd69
ed6d
e16f
e972
f174
f176
1577
e179
e97a
d97b
157c
f17d
117f
dd80
e981
2183
d984
ed86
e58a
398b
dd8c
298d
198e
1191
2192
1593
2195
1197
2199
d59a
219b
e19c
c99d
ed9e
1d9f
e1a1
11a4
15a7
e9a8
f1ab
edad
f1af
25b0
e9b1
29b2
11b3
1db6
d9b8
1dba
d5bc
15bd
1dbf
edc0
1dc1
edc2
25c3
15c4
e9c7
e1c8
e5ca
21ce
f1cf
19d0
cdd1
e1d2
cdd3
e5d5
2dd6
11d7
e9d8
19d9
edda
25db
11dc
dddd
15de
21df
1960
dd61
ed62
e967
e568
196e
e96f
e170
f173
c974
2976
1577
b57a
1d7b
157d
1d7e
e97f
1180
dd85
e986
1187
1188
1189
e58a
198b
118d
158f
1591
d194
1d96
e998
219a
119b
c99c
f19e
199f
19a1
e5a2
1da4
e5a5
31a7
e9a9
e9aa
c1ac
e5ad
c9ae
1db3
15b6
f1b8
d9b9
f1ba
25bc
ddc0
edc1
25c2
11c3
f1c6
e9c7
edc9
e5ca
e5cb
d1cd
25cf
19d1
11d2
e1d3
f1d5
15d6
e5d7
11d8
19d9
e1da
15dd
e9de
f161
e965
ed66
e56a
256b
156c
256e
f16f
e570
ed73
1175
1576
ed78
d57a
1d7d
317e
117f
ed81
1182
f185
e586
1987
f18a
2d8d
318f
2992
1996
ed97
1198
1999
199a
ed9c
259d
119f
25a1
f1a2
1da7
e9a9
cdaa
3dab
e9ac
15ae
e9af
d9b1
edb2
35b3
e9b5
15b6
15b7
f1b9
11ba
11bb
2dbc
25bd
11be
29bf
e9c0
edc1
1dc3
d1c7
2dc8
d9ca
ddcc
35cf
d1d0
31d2
2dd6
1dd7
1dd8
e9da
f1dd
35de
2ddf
e560
1161
1162
f164
3165
dd66
ed68
316c
e96e
3170
2173
f174
1575
e576
2178
e979
e97a
357b
d57d
e57e
257f
1d83
1585
1186
c987
198a
158b
1d8c
e18f
2990
1193
2594
dd96
e99d
f19e
f1a1
cda3
1da6
35aa
2daf
e1b0
edb2
ddb3
15b7
d5b8
f1ba
edbb
edbc
d5bd
19bf
e9c0
15c1
cdc2
f1c4
25c5
15c7
1dc8
15ca
11cb
29cc
1dd1
ddd2
15d4
1dd5
e1d6
11d7
d5d8
15db
e5dc
11dd
e5df
e161
3163
1965
1166
1567
216d
216e
1171
ed74
1577
2179
d97a
117b
217c
d97d
f181
ed82
2983
f184
2587
1189
298d
dd91
ed92
e593
ed95
d996
1597
3998
1999
b19a
f19c
b59d
299e
15a0
11a1
dda2
e5a3
e5a4
15a5
d5a6
15a7
99a8
29a9
15aa
e5ad
25b0
c1b2
21b3
51b5
1db7
e5b8
21ba
cdbb
19bd
e5be
edc1
15c2
1dc6
21c7
1dc8
edc9
d9cb
ddcd
ddce
19cf
e9d1
cdd4
e5d7
edd8
15d9
e1db
f1dc
d1de
1560
2561
e962
e565
f166
ed67
d568
f16a
196b
356c
2170
f171
e172
c973
e975
1176
1578
157c
317d
157e
e97f
1980
ed82
1583
1185
d586
e988
d589
ed8a
c98c
d58e
ed8f
cd92
e197
119a
159b
159c
1d9d
299e
11a1
2da2
e5a4
21a7
19a8
39a9
19aa
f1ab
c9ae
edaf
f1b0
21b3
21b6
d9b7
21b8
f1ba
25bb
edbd
15bf
25c0
15c2
edc3
e9c5
1dc6
e1c9
19ca
e9cd
cdce
21cf
edd1
39d3
b9d4
35d5
d5d7
41d8
d1d9
d9db
b9dc
c9de
ed60
d162
1163
1965
ed66
bd67
2969
156a
e96b
dd73
cd75
e976
d577
1178
f17c
e57d
d97e
d57f
2180
1181
dd82
1984
1185
ed86
3588
ed89
198a
1d8d
dd92
f193
ed95
f196
e597
e998
e99b
39a0
1da2
dda4
d9a7
25a9
21aa
11ad
e9ae
15af
e5b0
d9b1
11b2
19b4
25b5
ddb7
edbd
e5be
c9bf
21c0
edc1
1dc2
15c3
d9c4
d5c6
29c7
1dc8
f1c9
21ca
1dcc
f1cd
f1cf
15d1
ddd4
c5d7
f1d8
f1d9
d1db
f1dc
29dd
d1df
1d60
1961
1562
3964
1167
f16a
296b
156c
e96d
e96e
e56f
e974
2176
3d77
1d78
1179
e57a
ed7b
357c
197f
d180
f182
2183
2584
d585
2d87
1588
458b
198d
2191
f192
1d93
d994
4195
1d98
4199
119a
399b
f19c
dd9d
1d9e
119f
e9a0
e5a1
39a2
1da3
dda4
c9a5
19a7
21a8
d5a9
e9aa
f1ac
cdad
e5ae
19af
e5b0
e9b1
15b2
e5b3
39b8
19ba
19bc
d9bd
25bf
29c0
21c1
e9c2
1dc3
15cb
b5cd
edce
29d0
11d1
29d3
bdd4
ddd6
21d9
e5dc
ddde
f1df
2966
1168
2d69
ed6e
1571
ed72
1d76
197a
157b
1d7c
f17e
ed80
2583
d986
1988
1189
198b
3d8c
f18d
118f
f190
ed91
e592
1593
3594
1595
d596
1d97
3999
d19a
e59d
cd9f
d9a2
e1a4
25a5
e5a6
e9a7
cda8
15aa
11ab
15ac
e5ad
f1af
29b0
e9b1
edb2
21b3
15b5
d1b6
29b7
e9b8
31b9
11ba
d5bb
edbd
edbe
15c3
31c4
19c6
1dca
11cb
e5ce
f1cf
1dd0
15d1
e5d2
f1d4
11d5
ddd6
edd8
11da
d9dc
21dd
d9de
f1df
d960
e161
2562
d564
2d65
e966
1968
156a
e16e
d96f
2d70
1971
1d73
1174
2175
cd76
f177
ed79
1d7c
e17d
e17e
197f
e180
1181
3582
1d83
1184
1985
f187
118a
258b
118c
d18d
d18f
f191
1192
2d94
1995
e596
f19a
119b
259c
f19d
159e
25a5
21a6
e5a9
11aa
e5ab
19ac
19af
ddb0
edb2
f1b3
f1b4
e1b5
c9b8
3db9
edba
e5bb
edbc
15be
c1c0
35c1
d9c2
1dc3
21c5
11c9
19cb
25cc
d1cf
15d2
ddd4
e5d6
edd8
21da
15db
21dd
d9de
15df
1960
d963
f165
1166
1d67
ed6c
c96e
e16f
f170
c571
cd72
3577
1578
1d79
e97a
1d7c
1d7d
ed7e
c980
e181
1582
2983
f184
e985
c586
218b
158d
118e
458f
f190
e992
2993
1d95
d596
2197
1998
e19a
159b
159c
1d9e
dda1
eda8
e5a9
edaa
e9ab
11ac
edae
15af
2db0
e5b1
edb3
11b4
1db5
edb9
15ba
2dc1
1dc3
11c4
21c6
15c7
edc8
f1cc
d1cf
15d0
c1d1
1dd5
d1d6
25d8
1dd9
31da
e9dc
1960
1562
d163
2966
2967
e96c
d56d
e56e
e570
e172
1d73
1174
3975
1176
1d77
d979
e57b
197c
257d
157e
157f
1d82
2d83
ed85
1187
3189
158a
3d8b
d18c
1590
f191
2195
d596
3d97
2d99
e59a
159b
e99d
e99f
e5a0
dda1
11a2
19a3
f1a9
e1aa
bdab
f1ae
29b0
15b1
e9b2
ddb3
ddb4
e1b6
25b7
21ba
15bc
f1c1
1dc3
e9c5
f1c7
19c9
e1cb
e9cc
1dce
d1cf
25d0
d9d1
e9d2
e1d6
25d7
11d8
41d9
19da
21dc
e963
1d64
f165
f167
1168
e16a
dd6b
cd6f
2176
1977
1d7c
117e
bd80
d586
e18a
158d
298e
3d8f
e590
e991
e992
f196
1d98
e999
ed9a
f19c
219e
e9a1
19a3
eda8
eda9
f1aa
d1ab
31b0
e9b2
11b3
c5b6
11b7
f1b9
29ba
15bb
29bc
11c2
29c4
f1c5
21c7
f1c8
e5cc
e9cd
11ce
f1d0
bdd1
edd2
19d5
f1d6
15d8
2dd9
e9db
15dd
e960
2161
e162
2963
f164
2565
cd66
c567
1968
3169
116a
296c
396d
e16e
1d70
ed71
cd75
e976
ed77
1578
257b
d57d
ed7e
c17f
2180
1981
e582
2d85
f186
e587
e189
f18b
258c
cd8d
158f
2190
d192
e193
d198
e199
199b
1d9d
f19e
199f
25a0
29a1
25a3
d9a4
2da6
1da7
19a8
29a9
19aa
15ab
15ac
1dad
edae
25af
edb0
21b2
3db3
15b6
e5b7
cdb8
e9b9
e5ba
e1bb
e1bc
41be
d5c1
1dc2
ddc4
15c5
c5c6
31c8
e5c9
15ca
c5cd
11ce
3dcf
f1d1
edd4
1dd5
15d6
d9d7
b1d8
d9d9
cdda
eddb
31dd
d9de
cddf
e161
c962
bd67
1969
e56e
2570
e973
bd75
3178
ed79
297b
157c
c57f
f181
d182
3983
1584
1185
1986
2588
2d89
158a
198b
158c
ed8d
118e
e98f
1590
e191
d992
4195
bd96
159b
299c
319e
35a0
21a1
29a3
eda4
e5a5
11a6
eda8
f1ad
f1ae
d5b2
f1b3
15b5
e9be
35c1
25c3
f1c5
21c7
2dca
cdcd
c5ce
e9d4
3dd5
e9d6
ddd7
21d8
1dd9
21da
d5db
d9dc
11dd
15de
1161
1965
f166
1567
2169
156a
e16c
1d6d
156f
2d70
1173
2d74
ed76
1d77
2d78
197a
2d7b
257c
ed7d
197f
e180
1181
2982
1583
1d85
e186
d987
1d8b
cd8d
1d90
b591
d992
1d94
e196
f197
1d98
ed9a
199c
ed9d
159e
d19f
19a0
29a3
e5a4
1da6
d1a7
dda9
25aa
29af
cdb2
d9b3
edb5
f1b6
e1b8
19b9
25ba
1dbc
e9bd
19be
cdc1
e1c2
19c3
11c6
31c7
15c9
15ca
1dcc
11cd
19d0
d1d2
c5d6
e5d8
21d9
1dda
11dd
1160
1163
ed64
e965
e566
ed6d
256e
e16f
f173
e977
2179
e97b
197d
257e
1181
ed84
1185
e586
2987
f188
e989
318d
1191
3592
1193
f195
1d96
ed97
319a
cd9b
219e
199f
11a1
f1a2
25a4
d9a5
eda6
19a8
15a9
21ab
d9ad
15ae
11af
11b2
15b6
25b8
f1b9
25bb
11bc
29bd
f1c1
11c2
f1c3
e1c4
edc7
1dc8
f1c9
f1ca
19cd
11ce
31cf
d1d0
29d2
1dd3
e5d5
1dd6
1dd8
e9d9
edda
eddb
dddc
2960
2161
4563
2d64
cd65
d967
c168
e169
f16a
3d6b
316c
116d
416e
bd6f
f170
1571
e173
bd74
5176
2177
f178
4179
c97a
d97b
117c
197d
4d7e
e97f
1d80
dd82
d184
9585
6187
1988
e989
e58a
198b
2d8d
e98e
218f
7191
3192
3d93
c594
3995
4996
c597
f199
259a
199b
e99c
199d
159e
5d9f
f1a0
15a1
39a2
d9a3
19a4
b9a5
a5a6
4da7
41a9
b9aa
d1ac
a5ad
f1ae
d5af
d9b1
35b2
11b4
f1b5
35b6
e1b7
11b8
c1b9
31bb
1dbc
55bd
8dbe
59bf
39c0
11c1
25c2
edc3
1dc4
35c5
ddc6
d5c7
19c8
edc9
edca
c9cb
d1cc
c9cd
15ce
15d0
1dd1
45d2
3dd6
d1d7
39d8
e5d9
d5db
b5dc
e9dd
c9de
15df
2d63
2165
256a
e56c
296d
f16e
3970
e171
cd72
dd73
1177
1978
2579
397b
117d
f17e
e180
1981
1583
2184
1585
e986
cd87
158a
118b
358c
c58d
118f
b991
d592
3193
1995
1997
1999
159b
319c
199e
c99f
1da0
11a1
f1a3
c5a4
11a5
e9a7
e9a9
f1ad
d1ae
25af
f1b0
d9b2
d9b3
21b8
41b9
1dba
d5bb
35bc
cdbd
25be
21bf
19c3
edc4
29c5
19c7
f1c9
11ca
19cb
15cc
f1ce
15cf
25d1
ddd2
19d5
d5d6
f1da
eddb
2ddd
f1de
e5df
1d60
1d61
e562
2564
d565
2166
ad67
c568
f16a
ad6c
196d
d96f
ad71
a972
a174
d975
e976
1178
4179
dd7a
197c
2d7d
e580
3181
e982
2583
d185
d986
c588
e58a
ed8c
d58f
e190
f191
e592
e994
ed96
d997
2598
2d99
e59a
e99c
159e
15a0
11a2
31a3
e5a4
eda5
d9a6
f1a7
21a8
19ab
ddac
d1ad
b1af
11b0
b1b1
15b2
25b3
2db4
1db6
11b8
f1b9
21ba
11bb
cdbd
d5be
29c0
11c1
e1c5
19c6
d9c7
d5c9
2dca
ddcb
d9cc
1dcd
e9ce
11cf
19d1
e9d2
1dd3
cdd7
21d8
e1db
f1dd
b9df
3961
e562
1963
d566
e167
2568
156a
d96c
156d
196f
dd72
c575
1578
1579
e97b
e57c
d97f
3581
dd82
e583
1587
e189
f18c
ed8d
3990
1191
1595
d997
199a
199b
29a0
31a2
19a3
eda4
e9a6
eda7
15a9
11af
e5b0
2db1
11b2
39b4
11b6
e1b7
2db8
11b9
15ba
2dbb
11bc
f1bd
25bf
11c0
c9c1
d9c4
e5c6
15c7
f1c9
39ca
29cf
edd2
19d3
1dd6
d9d7
11d8
ddda
e9db
29dd
f1de
d1df
d161
1962
d163
d564
d565
1567
dd6a
ed6b
196e
e570
ed71
3d72
2175
f176
1179
e57a
1d7c
dd7d
1d7f
1182
e984
2187
e18c
198d
118f
e590
f191
2d92
dd93
4194
ed95
1997
ed99
e19b
e59c
f19d
f1a0
e5a1
d1a2
e5a3
25a4
29a5
15a6
d5ac
21ad
41ae
e5af
35b1
15b3
f1b6
11b7
e9b9
edbb
2dbd
ddbf
c5c0
f1c2
e9c3
d9c5
19c6
15c9
e9ca
f1cc
21cd
15ce
edcf
c9d0
e1d1
ddd3
15d4
15d6
29da
11db
e5dc
19de
31df
cd64
2d65
d166
e567
316a
ed6d
d16e
1970
ed72
1573
2974
c976
f177
dd79
297b
d97c
1d80
1d81
bd83
f184
2985
ed86
1588
d189
158a
c58b
d18d
d98e
d98f
3590
e193
2594
d595
c597
cd98
e999
219a
d99b
2d9c
1d9d
d99e
299f
11a0
eda2
e5a3
11a4
35a5
29a6
21a8
21ac
d5ae
25af
b1b0
f1b2
c5b3
d9b5
d5b7
2db9
edba
f1bb
edbc
e1bd
25bf
19c1
c1c2
e1c3
a9c4
1dc5
d5c6
2dc9
25cb
19cc
e1d0
2dd1
e9d3
e5d5
d5d9
15db
25dc
f1df
ed62
1169
cd6c
1d6d
d16e
e171
f176
2d77
1d78
e579
e17a
117b
197c
e17e
ed7f
dd80
2581
e982
1183
ed87
218b
198c
ed8d
e98e
ed8f
1990
e591
d992
2593
1995
cd96
e997
1198
ed9a
1d9b
f19d
2da0
f1a1
29a3
cda4
19a5
e1a8
eda9
11aa
e1ab
f1ac
c9ad
1daf
ddb1
e1b3
11b5
1db7
edb9
11ba
e5bb
e5bd
edbe
3dbf
f1c0
11c3
e5c8
d5c9
11ca
edcd
edce
21d0
1dd1
c9d2
f1d4
e5d6
e5d8
eddc
21dd
f1de
d9df
1d60
d162
2963
2564
2165
d566
e167
e168
1169
316a
256c
416d
2d6e
e16f
2170
1171
d973
e174
dd75
ed77
2978
2979
f17a
dd7f
2580
1181
e982
1583
1184
e589
1d8a
198b
198c
e58e
e58f
2990
2191
ed92
d194
2195
d997
ed98
319a
199d
e59f
15a0
3da1
25a2
25a8
e5a9
11ab
f1ac
e1ad
15ae
3daf
d1b0
e5b3
11b4
19b5
e5b6
11b8
35bb
1dbc
c1bd
1dc0
19c1
bdc2
c9c4
2dc5
e5c6
29c8
b5c9
21ca
11cb
21cc
c5cd
c9ce
29cf
21d1
c5d4
29d5
b9d7
e5d9
d9db
e1dc
19dd
d9de
d9df
1562
3163
e164
2165
d966
1967
1969
1d6b
2971
1d72
2173
1574
1575
f17a
c17c
c97d
f17e
2d7f
1980
f181
1582
e984
1985
1186
1589
e98b
298c
1590
ed91
1994
f195
e598
ed99
ed9b
159c
e59d
159f
d9a2
e1a3
e1a4
11a6
e5a8
11ab
15ad
25af
ddb0
15b1
21b3
c1b4
15b6
15b7
d9b8
29b9
cdbb
11be
f1bf
21c2
25c3
d5c4
41c5
e9c6
ddc7
21c8
11c9
15ca
1dcc
11ce
2dcf
19d0
edd2
c5d3
e5d5
eddc
e960
e564
e569
ed6b
ed6e
e16f
1171
d576
3977
297c
ed7d
dd7e
117f
dd80
ed81
1582
1d83
f186
e987
ed88
1d89
258b
298e
1590
d191
ed92
1d94
2d95
f196
2199
d99a
199c
f19d
f19f
f1a1
25a3
15a5
e5a8
eda9
1daa
15ac
e9ad
11af
f1b2
f1b4
e9b5
25b7
e1b8
d9bb
d9bc
f1bd
39bf
ddc0
2dc1
15c3
19c4
e1c5
19c6
19c9
25cb
21cc
19d0
e9d1
e5d2
e9d3
edd5
e5d6
1dd7
15d8
15dd
1960
1966
ed68
1969
f16c
dd6f
ed72
1d73
dd74
e575
f179
d97a
217c
f17e
e97f
d980
e181
1d82
ed84
f186
1588
2589
d98c
118d
358e
ed8f
e992
c993
d596
2598
3199
e59a
199b
cd9c
ed9d
1d9e
119f
e9a1
15a2
2da3
cda5
19a7
e5a8
edaa
e1ac
f1ad
25b0
11b1
11b2
15b3
29b4
39b8
f1bd
edbe
19c0
e1c1
11c2
11c3
cdc5
1dc7
ddc8
f1cb
e9cd
d9ce
bdd1
f1d2
29d3
15d4
e5d5
19db
19de
e162
1563
e964
2565
1166
e167
1d68
1d69
e96b
256d
c16e
2d71
dd73
e574
1978
e57a
117b
217c
e97d
e97e
d97f
f181
dd82
1983
f184
1185
2588
1d8b
158c
d58d
ed8f
2590
dd91
ed92
2593
f194
1d95
1598
f19a
159b
e99c
199e
1d9f
15a0
eda1
d5a5
15a6
e1a7
11aa
f1ab
d5ac
edad
edae
31af
e5b1
d9b2
e9b3
11b4
11b5
edb6
25b7
19ba
edbb
f1bd
21be
11bf
d9c2
11c3
21c4
15c5
15cc
c5cd
e5ce
11d0
e9d2
29d3
d5d4
15d5
edd6
e9d8
15da
eddc
2ddd
e9de
ed60
c561
1d62
e164
2d66
1967
2168
1169
ed6a
d56b
f16c
f16d
ed6e
2972
2175
f176
e977
117b
117c
dd7d
ed7e
157f
dd80
1985
dd87
ed88
2d8c
f191
2592
2994
1597
1598
2599
e59b
f1a0
cda2
eda3
11a5
eda7
e1a9
e1ab
edac
15ae
25b0
f1b1
d9b2
e9b4
15b5
e9b6
21b7
e9bb
11bd
edbe
ddbf
c9c0
1dc1
e9c2
11c3
1dc4
e1c5
25c9
19cb
f1cc
1dcd
15cf
cdd0
15d1
11d3
15d4
ddd6
25d7
11d8
21da
19db
19dc
2161
2162
2163
e565
1966
1967
ed69
e16a
156b
dd6c
116d
e972
2973
1d75
2977
1579
117a
117b
d57d
117e
197f
ed80
2d82
2183
1185
2589
198a
118b
ed8d
258e
1193
1994
ed96
2597
1d98
2599
dd9a
1d9b
259e
e9a1
a9a6
d9a9
15aa
f1ab
f1ad
e5ae
e1b1
d1b3
11b5
edb6
29b7
f1b9
15ba
19bd
b5be
31bf
1dc0
d1c2
35c3
15c4
29c6
29c7
15c9
f1cb
b5cc
f1cf
25d0
edd2
1dd5
e9d6
1dd7
1dd9
29da
15db
19dd
1ddf
cd60
d962
2563
3565
2568
256a
116c
296f
ed70
1d71
e973
d575
ed77
1578
1579
217a
f17c
f17e
d97f
3980
2181
e182
1984
3185
1186
e987
1588
e589
218a
ed8d
cd8e
d18f
1190
ed92
1593
e195
d997
259a
e99b
1d9c
259d
1d9e
159f
11a0
21a1
e9a4
15a5
11a7
1da8
25a9
31aa
31ac
1dad
35af
1db2
e5b5
21b6
edb7
f1b8
19b9
e9ba
edc1
f1c2
e1c3
11c5
e9c6
25c8
19ca
19cb
edd0
e9d3
11d4
15d6
edd7
edd8
d9d9
d9db
15dc
19dd
d960
a561
e164
e967
3568
dd6b
f16d
ed6e
316f
4571
2d72
1d74
e175
e177
1578
e179
197a
d57d
e57e
1981
f184
3186
2d89
198e
e98f
1592
e993
2994
2197
1598
1999
e99a
119c
c5a2
d5a3
11a4
e9a7
f1a8
19aa
19ac
15ad
1dae
15b3
15b7
d5b8
11ba
edbb
cdbc
25bd
e9be
cdc0
19c4
11c6
19c7
edcc
e9d0
f1d2
edd3
1dd4
19d7
e1d8
edd9
15db
11dc
15dd
21de
15df
c160
ed61
e962
1963
dd64
f165
f166
f167
3168
116b
dd6d
cd6e
2571
3972
1974
dd76
d977
e978
c979
217a
cd7c
e17e
f17f
2980
3d81
d983
2985
1986
ed87
e188
d98b
dd8d
ed90
e593
cd95
2196
f197
e999
bd9b
1d9f
eda1
1da2
19a3
eda4
19a9
15ab
f1ac
19ad
3dae
edb0
2db1
19b2
31b3
cdb4
edb5
19b6
d9b8
f1ba
e9bc
f1be
d9bf
f1c1
cdc3
ddc4
f1c8
19c9
e9ca
f1cc
31cd
19ce
11cf
ddd0
edd1
15d4
d9d5
f1d6
e9d8
21de
19df
e960
b964
2d65
e166
1d67
c569
156a
d56d
2d6f
3571
1572
1575
bd76
c178
e179
d17b
f17c
e17d
cd7e
f181
ed83
c184
2586
d587
d188
d989
318a
218b
d18c
