0000040
001004b
0022c5a
003945e
0050c6e
006c46c
0087464
00a0469
00ba875
00d7c6f
00f3877
0111476
012ec6d
014a076
016786b
018246f
019e06a
01b887b
01d7473
01f406e
020f871
022bc70
0247c5e
025f451
027386a
028e070
02aa078
02c8072
02e4868
02fe864
031786c
033286f
034e476
036bc71
0388072
03a4873
03c1464
03da469
03f486d
040fc47
0421875
043ec64
0457c5f
046f864
0488865
04a1c58
04b7c59
04ce063
04e6c5a
04fd459
0513859
0529c4c
053cc48
054ec61
0567065
0580468
059a466
05b3c73
05d0874
05ed876
060b06e
062686c
0641870
065d879
067bc77
0699874
06b6874
06d386a
06ee05b
0704c5b
071b863
0734458
074a464
0763467
077d065
0796457
07ac048
07be04d
07d1460
07e944c
07fc43c
080b440
081b456
0830c57
0846860
085e862
087704d
088a454
089f45d
08b6846
08c8054
08dd063
08f5c5b
090c858
0922854
093787b
0956446
0967c44
0978c43
0989856
099f052
09b3856
09c9046
09da850
09ee845
09ffc44
0a10c49
0a2304e
0a36863
0a4f446
0a60c4a
0a73450
0a87453
0a9c049
0aae44f
0ac204a
0ad4842
0ae504c
0af8049
0b0a44a
0b1cc46
0b2e453
0b4305a
0b59858
0b6f853
0b84447
0b96050
0baa03b
0bb8c52
0bcd452
0be1c57
0bf7833
0c04451
0c1884b
0c2b456
0c40c49
0c5305c
0c6a047
0c7bc50
0c8fc4b
0ca2850
0cb6850
0cca83e
0cda057
0cefc43
0d00854
0d15845
0d26c5c
0d3dc4f
0d5183d
0d60c43
0d71842
0d82040
0d9203d
0da144b
0db4051
0dc844a
0ddac49
0ded047
0dfec4a
0e1144e
0e24c4b
0e37851
0e4bc4b
0e5e850
0e72847
0e8444a
0e96c3b
0ea585c
0ebc842
0ecd04b
0edfc47
0ef186c
0f0c84e
0f20057
0f35c45
0f4704c
0f5a050
0f6e04b
0f80c58
0f96c49
0fa9046
0fba847
0fcc454
0fe144b
0ff404c
100704f
101ac43
102b84f
103f45e
1056c4b
1069845
107ac51
108f056
10a4849
10b6c58
10ccc4b
10df83f
10ef440
10ff44f
1113055
112844a
113ac44
114bc5b
1162847
1174440
1184448
1196441
11a6849
11b8c59
11cf062
11e784f
11fb449
120d854
1222852
1237050
124b053
125fc45
1271044
1282049
1294459
12aa848
12bc847
12ce453
12e3055
12f8453
130d049
131f44a
1331c4c
1344c55
135a043
136ac57
1380850
139484c
13a784f
13bb454
13d044d
13e3850
13f784e
140b04a
141d850
143184a
144404e
145783c
146684b
147944b
148c049
149e44b
14b104a
14c3856
14d9051
14ed455
1502848
151484b
1527454
153c44b
154f053
1563c4b
1576863
158f446
15a0c50
15b4c4c
15c7c5b
15de83d
15edc46
15ff44f
1613061
162b458
1641456
1656c5d
166e050
1682050
1696045
16a7449
16b984e
16cd04b
16dfc44
16f0c46
1702446
1713c52
1728458
173e448
1750442
1760c3e
1770458
1786453
179b054
17b0054
17c5058
17db04d
17ee450
1802448
1814451
1828849
183ac40
184ac4c
185dc4a
1870452
1884c48
1896c45
18a804e
18bb844
18cc862
18e504f
18f8c48
190ac4e
191e44a
1930c47
1942846
195404e
1967852
197c04d
198f455
19a484e
19b805e
19cf85a
19e6047
19f7c4e
1a0b43f
1a1b056
1a30853
1a45452
1a59c47
1a6b84a
1a7e05a
1a94854
1aa9863
1ac2450
1ad644b
1ae903c
1af805f
1b0fc4c
1b22c64
1b3bc51
1b50050
1b64056
1b79852
1b8e04b
1ba0c43
1bb1865
1bcac3e
1bda44a
1becc54
1c01c42
1c12448
1c24448
1c36443
1c47041
1c57454
1c6c44f
1c8004d
1c93450
1ca7403
1ca8005
1ca9405
1caa803
1cab404
1cac405
1cad805
1caec05
1cb0004
1cb1004
1cb2005
1cb3405
1cb4805
1cb5c03
1cb6804
1cb7804
1cb8804
1cb9805
1cbac04
1cbbc05
1cbd005
1cbe405
1cbf804
1cc0805
1cc1c04
1cc2c03
1cc3804
1cc4804
1cc5803
1cc6405
1cc7804
1cc8805
1cc9c04
1ccac05
1ccc005
1ccd404
1cce404
1ccf404
1cd0404
1cd1404
1cd2404
1cd3405
1cd4803
1cd5405
1cd6804
1cd7803
1cd8404
1cd9403
1cda004
1cdb004
1cdc005
1cdd405
1cde805
1cdfc05
1ce1004
1ce2004
1ce3005
1ce4405
1ce5804
1ce6805
1ce7c04
1ce8c05
1cea003
1ceac05
1cec005
1ced403
1cee004
1cef004
1cf0004
1cf1005
1cf2405
1cf3805
1cf4c04
1cf5c04
1cf6c03
1cf7803
1cf8404
1cf9404
1cfa402
1cfac05
1cfc004
1cfd003
1cfdc05
1cff003
1cffc04
1d00c02
1d01405
1d02805
1d03c05
1d05005
1d06405
1d07804
1d08804
1d09805
1d0ac05
1d0c004
1d0d005
1d0e403
1d0f004
1d10004
1d11005
1d12404
1d13405
1d14803
1d15404
1d16404
1d17404
1d18405
1d19805
1d1ac05
1d1c005
1d1d405
1d1e805
1d1fc03
1d20805
1d21c03
1d22805
1d23c03
1d24805
1d25c05
1d27004
1d28004
1d29003
1d29c05
1d2b004
1d2c005
1d2d405
1d2e805
1d2fc00
1d2fc00
1d2fc00
1d2fc00
1d2fc00
0000000
0000000
0000000
0000000
0000000
0000000
0000000
0000000
0000000
0000000
0000000
0000000
0000000
0000000
0000000
0000000
0000000
0000000
0000000
0000000
0000000
0000000
0000000
0000000
0000000
0000000
0000000
0000000
0000000
0000000
0000000
0000000
0000000
0000000
0000000
0000000
0000000
0000000
0000000
0000000
0000000
0000000
0000000
0000000
0000000
0000000
0000000
0000000
0000000
0000000
0000000
0000000
0000000
0000000
0000000
0000000
0000000
0000000
0000000
0000000
0000000
0000000
0000000
0000000
0000000
0000000
0000000
0000000
0000000
0000000
0000000
0000000
0000000
0000000
0000000
0000000
0000000
0000000
0000000
0000000
0000000
0000000
0000000
0000000
0000000
0000000
0000000
0000000
0000000
0000000
0000000
0000000
0000000
0000000
0000000
0000000
0000000
0000000
0000000
0000000
0000000
0000000
0000000
0000000
0000000
0000000
0000000
0000000
0000000
0000000
0000000
0000000
0000000
0000000
0000000
0000000
0000000
0000000
0000000
0000000
0000000
0000000
0000000
0000000
0000000
0000000
0000000
0000000
0000000
0000000
0000000
0000000
0000000
0000000
0000000
0000000
0000000
0000000
0000000
0000000
0000000
0000000
0000000
0000000
0000000
0000000
0000000
0000000
0000000
0000000
0000000
0000000
0000000
0000000
0000000
0000000
0000000
0000000
0000000
0000000
0000000
0000000
0000000
0000000
0000000
0000000
0000000
0000000
0000000
0000000
0000000
0000000
0000000
0000000
0000000
0000000
0000000
0000000
0000000
0000000
0000000
0000000
0000000
0000000
0000000
0000000
0000000
0000000
0000000
0000000
0000000
0000000
0000000
0000000
0000000
0000000
0000000
0000000
0000000
0000000
0000000
0000000
0000000
0000000
0000000
0000000
0000000
0000000
0000000
0000000
0000000
0000000
0000000
0000000
0000000
0000000
0000000
0000000
0000000
0000000
0000000
0000000
0000000
0000000
0000000
0000000
0000000
0000000
0000000
0000000
0000000
0000000
0000000
0000000
0000000
0000000
0000000
0000000
0000000
0000000
0000000
0000000
0000000
0000000
0000000
0000000
0000000
0000000
0000000
0000000
0000000
0000000
0000000
0000000
0000000
0000000
0000000
0000000
0000000
0000000
0000000
0000000
0000000
0000000
0000000
0000000
0000000
0000000
0000000
0000000
0000000
0000000
0000000
0000000
0000000
0000000
0000000
0000000
0000000
0000000
0000000
0000000
0000000
0000000
0000000
0000000
0000000
0000000
0000000
0000000
0000000
0000000
0000000
0000000
0000000
0000000
0000000
0000000
0000000
0000000
0000000
0000000
0000000
0000000
0000000
0000000
0000000
0000000
0000000
0000000
0000000
0000000
0000000
0000000
0000000
0000000
0000000
0000000
0000000
0000000
0000000
0000000
0000000
0000000
0000000
0000000
0000000
0000000
0000000
0000000
0000000
0000000
0000000
0000000
0000000
0000000
0000000
0000000
0000000
0000000
0000000
0000000
0000000
0000000
0000000
0000000
0000000
0000000
0000000
0000000
0000000
0000000
0000000
0000000
0000000
0000000
0000000
0000000
0000000
0000000
0000000
0000000
0000000
0000000
0000000
0000000
0000000
0000000
0000000
0000000
0000000
0000000
0000000
0000000
0000000
0000000
0000000
0000000
0000000
0000000
0000000
0000000
0000000
0000000
0000000
0000000
0000000
0000000
0000000
0000000
0000000
0000000
0000000
0000000
0000000
0000000
0000000
0000000
0000000
0000000
0000000
0000000
0000000
0000000
0000000
0000000
0000000
0000000
0000000
0000000
0000000
0000000
0000000
0000000
0000000
0000000
0000000
0000000
0000000
0000000
0000000
0000000
0000000
0000000
0000000
0000000
0000000
0000000
0000000
0000000
0000000
0000000
0000000
0000000
0000000
0000000
0000000
0000000
0000000
0000000
0000000
0000000
0000000
0000000
0000000
0000000
0000000
0000000
0000000
0000000
0000000
0000000
0000000
0000000
0000000
0000000
0000000
0000000
0000000
0000000
0000000
0000000
0000000
0000000
0000000
0000000
0000000
0000000
0000000
0000000
0000000
0000000
0000000
0000000
0000000
0000000
0000000
0000000
0000000
0000000
0000000
0000000
0000000
0000000
0000000
0000000
0000000
0000000
0000000
0000000
0000000
0000000
0000000
0000000
0000000
0000000
0000000
0000000
0000000
0000000
0000000
0000000
0000000
0000000
0000000
0000000
0000000
0000000
0000000
0000000
0000000
0000000
0000000
0000000
0000000
0000000
0000000
0000000
0000000
0000000
0000000
0000000
0000000
0000000
0000000
0000000
0000000
0000000
0000000
0000000
0000000
0000000
0000000
0000000
0000000
0000000
0000000
0000000
0000000
